{
  "version": "1.0",
  "truncation": null,
  "padding": null,
  "added_tokens": [
    {
      "id": 0,
      "content": "<|endoftext|>",
      "single_word": false,
      "lstrip": false,
      "rstrip": false,
      "normalized": false,
      "special": true
    }
  ],
  "normalizer": null,
  "pre_tokenizer": {
    "type": "ByteLevel",
    "add_prefix_space": false,
    "trim_offsets": true,
    "use_regex": true
  },
  "post_processor": {
    "type": "ByteLevel",
    "add_prefix_space": true,
    "trim_offsets": false,
    "use_regex": true
  },
  "decoder": {
    "type": "ByteLevel",
    "add_prefix_space": true,
    "trim_offsets": true,
    "use_regex": true
  },
  "model": {
    "type": "BPE",
    "dropout": null,
    "unk_token": null,
    "continuing_subword_prefix": null,
    "end_of_word_suffix": null,
    "fuse_unk": false,
    "byte_fallback": false,
    "ignore_merges": false,
    "vocab": {
      "<|endoftext|>": 0,
      "!": 1,
      "\"": 2,
      "#": 3,
      "$": 4,
      "%": 5,
      "&": 6,
      "'": 7,
      "(": 8,
      ")": 9,
      "*": 10,
      "+": 11,
      ",": 12,
      "-": 13,
      ".": 14,
      "/": 15,
      "0": 16,
      "1": 17,
      "2": 18,
      "3": 19,
      "4": 20,
      "5": 21,
      "6": 22,
      "7": 23,
      "8": 24,
      "9": 25,
      ":": 26,
      ";": 27,
      "<": 28,
      "=": 29,
      ">": 30,
      "?": 31,
      "@": 32,
      "A": 33,
      "B": 34,
      "C": 35,
      "D": 36,
      "E": 37,
      "F": 38,
      "G": 39,
      "H": 40,
      "I": 41,
      "J": 42,
      "K": 43,
      "L": 44,
      "M": 45,
      "N": 46,
      "O": 47,
      "P": 48,
      "Q": 49,
      "R": 50,
      "S": 51,
      "T": 52,
      "U": 53,
      "V": 54,
      "W": 55,
      "X": 56,
      "Y": 57,
      "Z": 58,
      "[": 59,
      "\\": 60,
      "]": 61,
      "^": 62,
      "_": 63,
      "`": 64,
      "a": 65,
      "b": 66,
      "c": 67,
      "d": 68,
      "e": 69,
      "f": 70,
      "g": 71,
      "h": 72,
      "i": 73,
      "j": 74,
      "k": 75,
      "l": 76,
      "m": 77,
      "n": 78,
      "o": 79,
      "p": 80,
      "q": 81,
      "r": 82,
      "s": 83,
      "t": 84,
      "u": 85,
      "v": 86,
      "w": 87,
      "x": 88,
      "y": 89,
      "z": 90,
      "{": 91,
      "|": 92,
      "}": 93,
      "~": 94,
      "¡": 95,
      "¢": 96,
      "£": 97,
      "¤": 98,
      "¥": 99,
      "¦": 100,
      "§": 101,
      "¨": 102,
      "©": 103,
      "ª": 104,
      "«": 105,
      "¬": 106,
      "®": 107,
      "¯": 108,
      "°": 109,
      "±": 110,
      "²": 111,
      "³": 112,
      "´": 113,
      "µ": 114,
      "¶": 115,
      "·": 116,
      "¸": 117,
      "¹": 118,
      "º": 119,
      "»": 120,
      "¼": 121,
      "½": 122,
      "¾": 123,
      "¿": 124,
      "À": 125,
      "Á": 126,
      "Â": 127,
      "Ã": 128,
      "Ä": 129,
      "Å": 130,
      "Æ": 131,
      "Ç": 132,
      "È": 133,
      "É": 134,
      "Ê": 135,
      "Ë": 136,
      "Ì": 137,
      "Í": 138,
      "Î": 139,
      "Ï": 140,
      "Ð": 141,
      "Ñ": 142,
      "Ò": 143,
      "Ó": 144,
      "Ô": 145,
      "Õ": 146,
      "Ö": 147,
      "×": 148,
      "Ø": 149,
      "Ù": 150,
      "Ú": 151,
      "Û": 152,
      "Ü": 153,
      "Ý": 154,
      "Þ": 155,
      "ß": 156,
      "à": 157,
      "á": 158,
      "â": 159,
      "ã": 160,
      "ä": 161,
      "å": 162,
      "æ": 163,
      "ç": 164,
      "è": 165,
      "é": 166,
      "ê": 167,
      "ë": 168,
      "ì": 169,
      "í": 170,
      "î": 171,
      "ï": 172,
      "ð": 173,
      "ñ": 174,
      "ò": 175,
      "ó": 176,
      "ô": 177,
      "õ": 178,
      "ö": 179,
      "÷": 180,
      "ø": 181,
      "ù": 182,
      "ú": 183,
      "û": 184,
      "ü": 185,
      "ý": 186,
      "þ": 187,
      "ÿ": 188,
      "Ā": 189,
      "ā": 190,
      "Ă": 191,
      "ă": 192,
      "Ą": 193,
      "ą": 194,
      "Ć": 195,
      "ć": 196,
      "Ĉ": 197,
      "ĉ": 198,
      "Ċ": 199,
      "ċ": 200,
      "Č": 201,
      "č": 202,
      "Ď": 203,
      "ď": 204,
      "Đ": 205,
      "đ": 206,
      "Ē": 207,
      "ē": 208,
      "Ĕ": 209,
      "ĕ": 210,
      "Ė": 211,
      "ė": 212,
      "Ę": 213,
      "ę": 214,
      "Ě": 215,
      "ě": 216,
      "Ĝ": 217,
      "ĝ": 218,
      "Ğ": 219,
      "ğ": 220,
      "Ġ": 221,
      "ġ": 222,
      "Ģ": 223,
      "ģ": 224,
      "Ĥ": 225,
      "ĥ": 226,
      "Ħ": 227,
      "ħ": 228,
      "Ĩ": 229,
      "ĩ": 230,
      "Ī": 231,
      "ī": 232,
      "Ĭ": 233,
      "ĭ": 234,
      "Į": 235,
      "į": 236,
      "İ": 237,
      "ı": 238,
      "Ĳ": 239,
      "ĳ": 240,
      "Ĵ": 241,
      "ĵ": 242,
      "Ķ": 243,
      "ķ": 244,
      "ĸ": 245,
      "Ĺ": 246,
      "ĺ": 247,
      "Ļ": 248,
      "ļ": 249,
      "Ľ": 250,
      "ľ": 251,
      "Ŀ": 252,
      "ŀ": 253,
      "Ł": 254,
      "ł": 255,
      "Ń": 256,
      "Ġt": 257,
      "he": 258,
      "Ġa": 259,
      "in": 260,
      "Ġs": 261,
      "Ġthe": 262,
      "Ġw": 263,
      "re": 264,
      "Ġo": 265,
      "ed": 266,
      "Ġh": 267,
      "âĢ": 268,
      "Ġb": 269,
      "ou": 270,
      "ing": 271,
      "er": 272,
      "it": 273,
      "on": 274,
      "Ġf": 275,
      "at": 276,
      "nd": 277,
      "as": 278,
      "Ġc": 279,
      "is": 280,
      "en": 281,
      "Ġto": 282,
      "Ġm": 283,
      "ll": 284,
      "Ġd": 285,
      "Ġhe": 286,
      "Ġl": 287,
      "an": 288,
      "ar": 289,
      "Ġth": 290,
      "Ġof": 291,
      "Ġp": 292,
      "or": 293,
      "es": 294,
      "Ġin": 295,
      "Ġand": 296,
      "ad": 297,
      "om": 298,
      "Ġg": 299,
      "el": 300,
      "Ġwas": 301,
      "id": 302,
      "ow": 303,
      "ac": 304,
      "ut": 305,
      "âĢĻ": 306,
      "st": 307,
      "Ġe": 308,
      "le": 309,
      "im": 310,
      "Ġn": 311,
      "Ġit": 312,
      "ly": 313,
      "âĢĿ": 314,
      "âĢľ": 315,
      "Ġbe": 316,
      "al": 317,
      "Ġhis": 318,
      "Ġon": 319,
      "Ġst": 320,
      "ic": 321,
      "gh": 322,
      "ld": 323,
      "ot": 324,
      "ve": 325,
      "Ġas": 326,
      "et": 327,
      "Ġu": 328,
      "The": 329,
      "ion": 330,
      "ent": 331,
      "Ġre": 332,
      "Ġthat": 333,
      "Ġy": 334,
      "Ġhad": 335,
      "ĠI": 336,
      "ke": 337,
      "ith": 338,
      "ĠH": 339,
      "Ġwith": 340,
      "Ġyou": 341,
      "ur": 342,
      "ir": 343,
      "Ġwe": 344,
      "ver": 345,
      "Ġr": 346,
      "Ġsa": 347,
      "ould": 348,
      "oo": 349,
      "ill": 350,
      "Ġan": 351,
      "Ġfor": 352,
      "ght": 353,
      "Ġwh": 354,
      "all": 355,
      "ore": 356,
      "ce": 357,
      "se": 358,
      "Ġha": 359,
      "Ġat": 360,
      "Ġhim": 361,
      "ay": 362,
      "Ġfr": 363,
      "her": 364,
      "am": 365,
      "ĠThe": 366,
      "ct": 367,
      "ĠS": 368,
      "ain": 369,
      "red": 370,
      "Ġli": 371,
      "ĠA": 372,
      "Ġbut": 373,
      "rou": 374,
      ",âĢĿ": 375,
      "ked": 376,
      "Ġsaid": 377,
      "ter": 378,
      "ag": 379,
      "il": 380,
      "ro": 381,
      "ĠJ": 382,
      "em": 383,
      "Ġsh": 384,
      "Ġle": 385,
      "us": 386,
      "pp": 387,
      "ri": 388,
      "ĠHe": 389,
      "ess": 390,
      "Ġout": 391,
      ".âĢĿ": 392,
      "Ġse": 393,
      "Ġfrom": 394,
      "Ġk": 395,
      "ome": 396,
      "Ġwere": 397,
      "ight": 398,
      "ard": 399,
      "hing": 400,
      "ack": 401,
      "ant": 402,
      "ĠF": 403,
      "Ġis": 404,
      "if": 405,
      "Ġup": 406,
      "Ġal": 407,
      "ĠâĢľ": 408,
      "qu": 409,
      "um": 410,
      "Ġne": 411,
      "ason": 412,
      "Ġab": 413,
      "Ġnot": 414,
      "ĠM": 415,
      "Ġint": 416,
      "un": 417,
      "Ġsp": 418,
      "ch": 419,
      "Ġcon": 420,
      "Ġall": 421,
      "ust": 422,
      "Ġthey": 423,
      "Ġex": 424,
      "ake": 425,
      "Ġj": 426,
      "ast": 427,
      "ĠC": 428,
      "king": 429,
      "Ġdid": 430,
      "ix": 431,
      "Ġhave": 432,
      "one": 433,
      "ind": 434,
      "ul": 435,
      "ure": 436,
      "Ġthem": 437,
      "Ġwould": 438,
      "ven": 439,
      "Ġcould": 440,
      "op": 441,
      "ĠW": 442,
      "ted": 443,
      "ge": 444,
      "Ġone": 445,
      "Ġdo": 446,
      "ers": 447,
      "ĠT": 448,
      "Ġfe": 449,
      "Ġman": 450,
      "ally": 451,
      "Zac": 452,
      "Ġher": 453,
      "ive": 454,
      "ation": 455,
      "Ġlike": 456,
      "ĠB": 457,
      "ood": 458,
      "ra": 459,
      "out": 460,
      "ĠJason": 461,
      "Ġinto": 462,
      "Ġsome": 463,
      "Ġso": 464,
      "elix": 465,
      "?âĢĿ": 466,
      "Ġcl": 467,
      "ie": 468,
      "Ġch": 469,
      "Ġde": 470,
      "Ġmore": 471,
      "ĠIt": 472,
      "ect": 473,
      "Ġv": 474,
      "ĠE": 475,
      "Ġloo": 476,
      "est": 477,
      "ity": 478,
      "ong": 479,
      "own": 480,
      "hed": 481,
      "Ġme": 482,
      "os": 483,
      "and": 484,
      "Ġthis": 485,
      "od": 486,
      "hat": 487,
      "Ġor": 488,
      "ap": 489,
      "ig": 490,
      "nt": 491,
      "ble": 492,
      "Ġqu": 493,
      "Ġkn": 494,
      "vel": 495,
      "round": 496,
      "ĠR": 497,
      "Ġen": 498,
      "ide": 499,
      "Ġonly": 500,
      "Ġwor": 501,
      "ther": 502,
      "Ġbl": 503,
      "You": 504,
      "oc": 505,
      "Ġcom": 506,
      "ĠZac": 507,
      "Ġtheir": 508,
      "Ġar": 509,
      "Ġany": 510,
      "th": 511,
      "Ġwhe": 512,
      "Ġjust": 513,
      "ost": 514,
      "ist": 515,
      "Ġwhat": 516,
      "ous": 517,
      "Ġback": 518,
      "Ġby": 519,
      "ĠP": 520,
      "ting": 521,
      "sel": 522,
      "Ġtr": 523,
      "Ġbeen": 524,
      "Ġare": 525,
      "Ġeven": 526,
      "Ġtim": 527,
      "ĠFelix": 528,
      "very": 529,
      "Ġshe": 530,
      "ough": 531,
      "ace": 532,
      "Ġdidn": 533,
      "pt": 534,
      "Ġgo": 535,
      "ĠD": 536,
      "ate": 537,
      "ol": 538,
      "Ġag": 539,
      "Ġget": 540,
      "ade": 541,
      "ound": 542,
      "ick": 543,
      "our": 544,
      "ff": 545,
      "fore": 546,
      "Ġsu": 547,
      "He": 548,
      "ĠN": 549,
      "Ġthan": 550,
      "Ġover": 551,
      "ort": 552,
      "ely": 553,
      "Ġother": 554,
      "Ġtime": 555,
      "ĠO": 556,
      "'s": 557,
      "ward": 558,
      "ell": 559,
      "Ġpl": 560,
      "are": 561,
      "ak": 562,
      "ass": 563,
      "Ġpro": 564,
      "Ġsm": 565,
      "ep": 566,
      "ĠG": 567,
      "Ġwho": 568,
      "Ġfl": 569,
      "ire": 570,
      "Ġyour": 571,
      "imp": 572,
      "oin": 573,
      "self": 574,
      "Ġif": 575,
      "Ġbefore": 576,
      "Ġus": 577,
      "Ġun": 578,
      "urn": 579,
      "ile": 580,
      "Ġtoo": 581,
      "ered": 582,
      "rough": 583,
      "fter": 584,
      "Ġdown": 585,
      "per": 586,
      "reat": 587,
      "way": 588,
      "ance": 589,
      "Ġthrough": 590,
      "Ġno": 591,
      "Ġsk": 592,
      "ving": 593,
      "ies": 594,
      "Ġtw": 595,
      "Ġabout": 596,
      "Ġthere": 597,
      "ss": 598,
      "ower": 599,
      "act": 600,
      "Ġstill": 601,
      "ĠL": 602,
      "Ġsl": 603,
      "ĠV": 604,
      "ved": 605,
      "Ġcan": 606,
      "art": 607,
      "ose": 608,
      "age": 609,
      "Ġaround": 610,
      "'t": 611,
      "ite": 612,
      "Ġasked": 613,
      "Ġagain": 614,
      "ated": 615,
      "ice": 616,
      "Ġoff": 617,
      "ings": 618,
      "Ġ\"": 619,
      "elt": 620,
      "Ġhand": 621,
      "Ġlevel": 622,
      "ence": 623,
      "--": 624,
      "omet": 625,
      "ial": 626,
      "ich": 627,
      "Ġlooked": 628,
      "pl": 629,
      "Ġnow": 630,
      "row": 631,
      "Ġsc": 632,
      "ond": 633,
      "Ġpe": 634,
      "ame": 635,
      "Ġwhen": 636,
      "Ġad": 637,
      "ared": 638,
      "Ġits": 639,
      "Ġstr": 640,
      "led": 641,
      "Ġatt": 642,
      ".\"": 643,
      "It": 644,
      "Ġknow": 645,
      "ment": 646,
      "ine": 647,
      "ree": 648,
      "Ġfelt": 649,
      "Ġstar": 650,
      "Ġtwo": 651,
      "Ġhow": 652,
      "wn": 653,
      "omething": 654,
      "Ġmon": 655,
      "other": 656,
      "ord": 657,
      "ck": 658,
      "ull": 659,
      "ions": 660,
      "ove": 661,
      "pped": 662,
      "ang": 663,
      "so": 664,
      "ople": 665,
      "able": 666,
      "Ġafter": 667,
      "Ġpower": 668,
      "Ġcont": 669,
      "ue": 670,
      "Ġ(": 671,
      "Ġway": 672,
      "ry": 673,
      "aking": 674,
      "ip": 675,
      "ave": 676,
      "ious": 677,
      "Ġpre": 678,
      "Ġmy": 679,
      "Ġsw": 680,
      "Ġey": 681,
      "fe": 682,
      "ab": 683,
      "Ġwasn": 684,
      "Ġfew": 685,
      "Ġevery": 686,
      "iz": 687,
      "Ġmade": 688,
      "Ġpeople": 689,
      "Ġro": 690,
      "ank": 691,
      "Ġke": 692,
      "fus": 693,
      "ĠJake": 694,
      "Ġdis": 695,
      "Ġsur": 696,
      "Ġcomp": 697,
      "au": 698,
      "Ġact": 699,
      "Ġskill": 700,
      "Ġsomething": 701,
      "Ġac": 702,
      "gr": 703,
      "Ġgot": 704,
      "Ġhead": 705,
      "ump": 706,
      "Ġapp": 707,
      "ark": 708,
      "Ġimp": 709,
      "Ġwant": 710,
      "Ġsee": 711,
      "Ġent": 712,
      "thing": 713,
      "Ġte": 714,
      "Ġalso": 715,
      "..": 716,
      "ily": 717,
      "irst": 718,
      "Ġmu": 719,
      "Ġfar": 720,
      "Ġhimself": 721,
      "Ġseem": 722,
      "Ġturn": 723,
      "tle": 724,
      "Ġbod": 725,
      "ath": 726,
      "ady": 727,
      "Ġwill": 728,
      "Ġneed": 729,
      "Ġ[": 730,
      "ater": 731,
      "orm": 732,
      "ft": 733,
      "iv": 734,
      "oint": 735,
      "vent": 736,
      "Ġinc": 737,
      "Ġlong": 738,
      "Ġbr": 739,
      "Ġbit": 740,
      "ach": 741,
      "Ġpr": 742,
      "ought": 743,
      "ons": 744,
      "Ġam": 745,
      "ĠThey": 746,
      "ult": 747,
      "erg": 748,
      "ever": 749,
      "arn": 750,
      "Ġaway": 751,
      "Ġbet": 752,
      "Ġhere": 753,
      "Ġmuch": 754,
      "?\"": 755,
      "Ġund": 756,
      "Ġkill": 757,
      "ens": 758,
      "ĠTh": 759,
      "Ġspe": 760,
      "Ġfirst": 761,
      "ary": 762,
      "ink": 763,
      "Ġwhile": 764,
      "Ġgr": 765,
      "Ġres": 766,
      "Ġwhich": 767,
      "Ġeyes": 768,
      "Ġbody": 769,
      "Ġarm": 770,
      "âĢ¦": 771,
      "ĠSt": 772,
      "ful": 773,
      "ying": 774,
      "ren": 775,
      "Ġthen": 776,
      "oll": 777,
      "Ġright": 778,
      "ild": 779,
      "Ġmost": 780,
      "Ġstarted": 781,
      "Ġdem": 782,
      "Ġthough": 783,
      "Ġcle": 784,
      "Ġshould": 785,
      "ually": 786,
      "ĠCl": 787,
      "Ġgu": 788,
      "Ġfight": 789,
      "ĠBut": 790,
      "Ġquick": 791,
      "Ġmet": 792,
      "Ġnew": 793,
      "Ġsmall": 794,
      "ew": 795,
      "me": 796,
      "Ġgl": 797,
      "Ġbeing": 798,
      "ud": 799,
      "ened": 800,
      "Ġgood": 801,
      "agic": 802,
      "ained": 803,
      "ility": 804,
      "Ġtook": 805,
      "Ġbot": 806,
      "Ġanother": 807,
      "Ġdes": 808,
      "Ġtri": 809,
      "Ġbec": 810,
      "ans": 811,
      "What": 812,
      "rey": 813,
      "Ġlar": 814,
      ",\"": 815,
      "ufus": 816,
      "Ġwhere": 817,
      "Ġper": 818,
      "Ġmo": 819,
      "Ġrem": 820,
      "Ġtoward": 821,
      "Ġsec": 822,
      "âĢĶ": 823,
      "Ġfound": 824,
      "Ġel": 825,
      "Ġmake": 826,
      "Ġgoing": 827,
      "ru": 828,
      "Ġmonst": 829,
      "arly": 830,
      "ning": 831,
      "side": 832,
      "ks": 833,
      "ress": 834,
      "Ġhas": 835,
      "Ġenough": 836,
      "ory": 837,
      "Ġfin": 838,
      "Ġfeel": 839,
      "rent": 840,
      "ating": 841,
      "ĠHis": 842,
      "ber": 843,
      "ves": 844,
      "ffect": 845,
      "Ġbu": 846,
      "Ġbeast": 847,
      "ead": 848,
      "ces": 849,
      "Ġpoint": 850,
      "imm": 851,
      "Ġdon": 852,
      "Ġlight": 853,
      "Ġwell": 854,
      "ather": 855,
      "Ġthought": 856,
      "Ġpart": 857,
      "Ġ1": 858,
      "Ġexp": 859,
      "ount": 860,
      "ling": 861,
      "ĠYou": 862,
      "Ġcouldn": 863,
      "Ġhel": 864,
      "That": 865,
      "Ġuse": 866,
      "Ġseemed": 867,
      "Ġhu": 868,
      "ergy": 869,
      "Ġmana": 870,
      "ched": 871,
      "Ġday": 872,
      "Ġinst": 873,
      "oss": 874,
      "che": 875,
      "Ġtake": 876,
      "ced": 877,
      "uck": 878,
      "ign": 879,
      "ied": 880,
      "umph": 881,
      "Ġwal": 882,
      "Ġquite": 883,
      "less": 884,
      "Ġunder": 885,
      "Ġthings": 886,
      "Ġop": 887,
      "aw": 888,
      "Ġonce": 889,
      "Felix": 890,
      "Ġgi": 891,
      "ger": 892,
      "ty": 893,
      "Ġreal": 894,
      "be": 895,
      "Ġown": 896,
      "umphrey": 897,
      "ĠMan": 898,
      "Ġlit": 899,
      "Ġmany": 900,
      "ĠRufus": 901,
      "---": 902,
      "ors": 903,
      "Th": 904,
      "Ġdark": 905,
      "Ġsame": 906,
      "mon": 907,
      "Ġhelp": 908,
      "Ġleft": 909,
      "ase": 910,
      "owed": 911,
      "Ġwall": 912,
      "Ġcr": 913,
      "ont": 914,
      "Ġend": 915,
      "Ġsure": 916,
      "ne": 917,
      "Ġmagic": 918,
      "Ġthink": 919,
      "Ġem": 920,
      "Ġthose": 921,
      "pe": 922,
      "Ġfind": 923,
      "ars": 924,
      "als": 925,
      "Ġsaw": 926,
      "yst": 927,
      "Ġthing": 928,
      "ĠShe": 929,
      "Ġturned": 930,
      "ĠIn": 931,
      "Ġlast": 932,
      "den": 933,
      "ĠClive": 934,
      "Ġknew": 935,
      "ise": 936,
      "here": 937,
      "Ġstrong": 938,
      "xt": 939,
      "Ġground": 940,
      "ready": 941,
      "Ġattack": 942,
      "Ġcame": 943,
      "oment": 944,
      "ĠAs": 945,
      "ob": 946,
      "Ġlet": 947,
      "old": 948,
      "Ġalready": 949,
      "ock": 950,
      "venture": 951,
      "Ġquickly": 952,
      "og": 953,
      "Ġblood": 954,
      "Ġsecond": 955,
      "ier": 956,
      "ale": 957,
      "Ġ*": 958,
      "een": 959,
      "Ġhapp": 960,
      "Ġrec": 961,
      "ĠHumphrey": 962,
      "most": 963,
      "ystem": 964,
      "Ġworld": 965,
      "igh": 966,
      "Ġmight": 967,
      "Ġmoment": 968,
      "amp": 969,
      "Ġexpl": 970,
      "ged": 971,
      "Ġche": 972,
      "let": 973,
      "ense": 974,
      "Ġvery": 975,
      "ible": 976,
      "ze": 977,
      "Ġdec": 978,
      "hind": 979,
      "Ġhum": 980,
      "Ġagainst": 981,
      "Ġface": 982,
      "hy": 983,
      "ness": 984,
      "hap": 985,
      "oph": 986,
      "Ġsimp": 987,
      "Ġused": 988,
      "Ġpo": 989,
      "les": 990,
      "Ġess": 991,
      "Ġkeep": 992,
      "air": 993,
      "ction": 994,
      "Ġput": 995,
      "ail": 996,
      "Ġappe": 997,
      "ince": 998,
      "ded": 999,
      "ĠK": 1000,
      "Ġbehind": 1001,
      "ison": 1002,
      "ĠThere": 1003,
      "ĠNe": 1004,
      "aster": 1005,
      "Ġrun": 1006,
      "Ġalmost": 1007,
      "Ġboth": 1008,
      "Ġanything": 1009,
      "Ġwa": 1010,
      "Ġside": 1011,
      "roup": 1012,
      "oot": 1013,
      "Ġlarge": 1014,
      "cept": 1015,
      "ĠAt": 1016,
      "ophie": 1017,
      "Ġcreat": 1018,
      "Ġdist": 1019,
      "Ġlook": 1020,
      "ition": 1021,
      "Ġkind": 1022,
      "iet": 1023,
      "ert": 1024,
      "av": 1025,
      "Ġleast": 1026,
      "arri": 1027,
      "Ġlooking": 1028,
      "Ġlittle": 1029,
      "Ġstone": 1030,
      "Ġass": 1031,
      "Ġvo": 1032,
      "Ġheal": 1033,
      "gras": 1034,
      "Ġour": 1035,
      "ĠIf": 1036,
      "Ġ2": 1037,
      "ately": 1038,
      "iel": 1039,
      "Ġfam": 1040,
      "ĠSk": 1041,
      "Ġunt": 1042,
      "Ġstat": 1043,
      "ities": 1044,
      "ĠU": 1045,
      "Ġactually": 1046,
      "Ġquest": 1047,
      "Ġgroup": 1048,
      "ish": 1049,
      "Ġwater": 1050,
      "ised": 1051,
      "Ġcur": 1052,
      "ations": 1053,
      "Ġmaking": 1054,
      "aining": 1055,
      "Jason": 1056,
      "ook": 1057,
      "We": 1058,
      "Ġaw": 1059,
      "Ġret": 1060,
      "Ġcour": 1061,
      "Ġreally": 1062,
      "get": 1063,
      "Ġnext": 1064,
      "ield": 1065,
      "Ġdif": 1066,
      "ected": 1067,
      "Ġkept": 1068,
      "Ġbel": 1069,
      "Ġthree": 1070,
      "aged": 1071,
      "Ġclos": 1072,
      "reas": 1073,
      "ual": 1074,
      "Ġhard": 1075,
      "Ġrel": 1076,
      "Ġothers": 1077,
      "Ġhadn": 1078,
      "Ġrest": 1079,
      "Ġtried": 1080,
      "Ġdire": 1081,
      "Ġset": 1082,
      "ĠMana": 1083,
      "...": 1084,
      "Ġwent": 1085,
      "Ġinf": 1086,
      "Ġwithout": 1087,
      "aring": 1088,
      "Ġeach": 1089,
      "Ġuntil": 1090,
      "ĠOgras": 1091,
      "Ġsn": 1092,
      "Ġeffect": 1093,
      "Ġeas": 1094,
      "Ġclass": 1095,
      "Ġpus": 1096,
      "Ġcomplet": 1097,
      "fic": 1098,
      "ah": 1099,
      "ange": 1100,
      "pr": 1101,
      "Ġdemon": 1102,
      "ering": 1103,
      "Ġair": 1104,
      "They": 1105,
      "ither": 1106,
      "Ġable": 1107,
      "reen": 1108,
      "Ġob": 1109,
      "Ġpot": 1110,
      "ached": 1111,
      "Ġentire": 1112,
      "Ġmin": 1113,
      "Ġcome": 1114,
      "ĠWe": 1115,
      "ĠSkill": 1116,
      "!\"": 1117,
      "gth": 1118,
      "land": 1119,
      "ause": 1120,
      "Ġenergy": 1121,
      "ten": 1122,
      "Ġdr": 1123,
      "Ġlot": 1124,
      "ĠSophie": 1125,
      "Ġthese": 1126,
      "Ġgetting": 1127,
      "ĠThat": 1128,
      "Ġbetter": 1129,
      "rew": 1130,
      "Ġcor": 1131,
      "Ġext": 1132,
      "bed": 1133,
      "ween": 1134,
      "Ġsound": 1135,
      "Ġcall": 1136,
      "Ġroom": 1137,
      "Ġbeg": 1138,
      "ical": 1139,
      "ided": 1140,
      "sw": 1141,
      "ĠAnd": 1142,
      "Ġbo": 1143,
      "Ġfoll": 1144,
      "Ġlead": 1145,
      "Ġpass": 1146,
      "ening": 1147,
      "Ġwork": 1148,
      "Ġdam": 1149,
      "Ġmind": 1150,
      "Ġform": 1151,
      "ĠâĢ": 1152,
      "Ġwanted": 1153,
      "ĠWh": 1154,
      "Ġacc": 1155,
      "up": 1156,
      "Ġwhy": 1157,
      "iper": 1158,
      "owing": 1159,
      "atter": 1160,
      "iss": 1161,
      "Ġnever": 1162,
      "ross": 1163,
      "Ġhit": 1164,
      "Ġtown": 1165,
      "ĠThis": 1166,
      "Ġhop": 1167,
      "Ġdoes": 1168,
      "Ġbetween": 1169,
      "Ġteam": 1170,
      "ient": 1171,
      "Ġhands": 1172,
      "Ġsince": 1173,
      "ĠViper": 1174,
      "Ġplace": 1175,
      "Ġdiffe": 1176,
      "Ġfeet": 1177,
      "ict": 1178,
      "ized": 1179,
      "Ġcons": 1180,
      "uring": 1181,
      "ĠLe": 1182,
      "hen": 1183,
      "Ġpain": 1184,
      "arm": 1185,
      "ully": 1186,
      "rength": 1187,
      "Ġclose": 1188,
      "Ġansw": 1189,
      "Ġimm": 1190,
      "Ġflo": 1191,
      "Ġgreat": 1192,
      "ili": 1193,
      "Ġslow": 1194,
      "oid": 1195,
      "Ġability": 1196,
      "ocus": 1197,
      "Ġvoice": 1198,
      "Ġeverything": 1199,
      "ited": 1200,
      "ird": 1201,
      "venturer": 1202,
      "Ġmove": 1203,
      "pping": 1204,
      "Ġheard": 1205,
      "ef": 1206,
      "Ġbat": 1207,
      "alf": 1208,
      "ryst": 1209,
      "Ġfront": 1210,
      "Ġcourse": 1211,
      "Ġnothing": 1212,
      "Ġhigh": 1213,
      "Ġfur": 1214,
      "orial": 1215,
      "Ġbuild": 1216,
      "Ġhuge": 1217,
      "Ġsit": 1218,
      "Ġsil": 1219,
      "Ġbig": 1220,
      "kely": 1221,
      "adow": 1222,
      "Ġsurpr": 1223,
      "ific": 1224,
      "rah": 1225,
      "ĠGary": 1226,
      "arrah": 1227,
      "Ġyet": 1228,
      "Ġless": 1229,
      "Ġlife": 1230,
      "Ġseen": 1231,
      "Ġalong": 1232,
      "Ġtal": 1233,
      "Ġreg": 1234,
      "der": 1235,
      "Ġmonster": 1236,
      "ĠAn": 1237,
      "antly": 1238,
      "Ġinter": 1239,
      "Ġgave": 1240,
      "Ġmay": 1241,
      "Ġinte": 1242,
      "No": 1243,
      "ĠEm": 1244,
      "ike": 1245,
      "Ġfore": 1246,
      "Ġsay": 1247,
      "Ġbad": 1248,
      "Ġplan": 1249,
      "iver": 1250,
      "ream": 1251,
      "utorial": 1252,
      "ĠWith": 1253,
      "ways": 1254,
      "Ġtold": 1255,
      "Ġforward": 1256,
      "In": 1257,
      "Ġste": 1258,
      "Ġwithin": 1259,
      "Ġwhole": 1260,
      "but": 1261,
      "Ġstand": 1262,
      "As": 1263,
      "Ġposs": 1264,
      "iend": 1265,
      "Ġsimply": 1266,
      "rest": 1267,
      "Ġadventurer": 1268,
      "umb": 1269,
      "Ġdone": 1270,
      "Ġneeded": 1271,
      "Ġtra": 1272,
      "Ġlikely": 1273,
      "ĠWill": 1274,
      "Ġarrow": 1275,
      "But": 1276,
      "Ġwouldn": 1277,
      "Ġsoon": 1278,
      "This": 1279,
      "So": 1280,
      "ured": 1281,
      ")]": 1282,
      "Ġear": 1283,
      "Ġpath": 1284,
      "'d": 1285,
      "Ġgod": 1286,
      "Ġstood": 1287,
      "Ġbare": 1288,
      "ener": 1289,
      "Ġold": 1290,
      "Ġsuch": 1291,
      "ĠHow": 1292,
      "Ġsomeone": 1293,
      "ib": 1294,
      "iety": 1295,
      "haps": 1296,
      "Ġpers": 1297,
      "ject": 1298,
      "Ġcontin": 1299,
      "Ġarea": 1300,
      "Ġfocus": 1301,
      "Ġfriend": 1302,
      "Ġessence": 1303,
      "Ġwalked": 1304,
      "Ġappeared": 1305,
      "Ġexper": 1306,
      "Ġhour": 1307,
      "ĠFarrah": 1308,
      "ĠRe": 1309,
      "Ġtrying": 1310,
      "Ġskills": 1311,
      "Ġmanaged": 1312,
      "Ġhalf": 1313,
      "Ġ+": 1314,
      "Ġitself": 1315,
      "dden": 1316,
      "ants": 1317,
      "ĠâĢĵ": 1318,
      "St": 1319,
      "Ġsense": 1320,
      "ching": 1321,
      "edi": 1322,
      "Ġsto": 1323,
      "ilities": 1324,
      "Ġfinally": 1325,
      "Ġabove": 1326,
      "Ġpoison": 1327,
      "Ġsat": 1328,
      "arned": 1329,
      "Ġtell": 1330,
      "agd": 1331,
      "Ġdead": 1332,
      "Ġenem": 1333,
      "ĠWhat": 1334,
      "Ġsudden": 1335,
      "Ġaur": 1336,
      "agda": 1337,
      "Ġvis": 1338,
      "ĠPit": 1339,
      "Ġpoints": 1340,
      "Ġmoved": 1341,
      "How": 1342,
      "Ġhuman": 1343,
      "Ġeither": 1344,
      "ĠSh": 1345,
      "ging": 1346,
      "aced": 1347,
      "Ġhaving": 1348,
      "ures": 1349,
      "Ġslight": 1350,
      "ple": 1351,
      "Ġcompletely": 1352,
      "Ġcare": 1353,
      "Ġunderst": 1354,
      "Ġleg": 1355,
      "tered": 1356,
      "Ġnod": 1357,
      "ably": 1358,
      "ize": 1359,
      "Ġopen": 1360,
      "Ġcut": 1361,
      "iron": 1362,
      "aught": 1363,
      "to": 1364,
      "There": 1365,
      "ds": 1366,
      "Ġchar": 1367,
      "ĠAd": 1368,
      "eth": 1369,
      "Ġreached": 1370,
      "Ġrank": 1371,
      "Ġheld": 1372,
      "du": 1373,
      "atch": 1374,
      "Ġinstead": 1375,
      "cent": 1376,
      "Ġdoing": 1377,
      "Ġ3": 1378,
      "Ġide": 1379,
      "Ġsing": 1380,
      "Ġfeeling": 1381,
      "Ġhun": 1382,
      "Ġpur": 1383,
      "Ġed": 1384,
      "Ġben": 1385,
      "Ġstra": 1386,
      "ush": 1387,
      "ished": 1388,
      "Ġdoor": 1389,
      "Ġcra": 1390,
      "Ġins": 1391,
      "Ġdifferent": 1392,
      "Ġperson": 1393,
      "Ġser": 1394,
      "Ġbreat": 1395,
      "ments": 1396,
      "overed": 1397,
      "right": 1398,
      "Ġfire": 1399,
      "Ġever": 1400,
      "ĠDa": 1401,
      "ĠLevel": 1402,
      "Ġev": 1403,
      "alefic": 1404,
      "rank": 1405,
      "00": 1406,
      "iam": 1407,
      "ool": 1408,
      "Ġsystem": 1409,
      "app": 1410,
      "sh": 1411,
      "hes": 1412,
      "Ġpowerful": 1413,
      "Ġspace": 1414,
      "Ġsword": 1415,
      "Ġelse": 1416,
      "aving": 1417,
      "Ġwr": 1418,
      "ased": 1419,
      "Ġcryst": 1420,
      "Ġabs": 1421,
      "Ġmonsters": 1422,
      "Ġmem": 1423,
      "Ġusing": 1424,
      "Ġbarely": 1425,
      "If": 1426,
      "xe": 1427,
      "Ġweak": 1428,
      "ĠEn": 1429,
      "cess": 1430,
      "Ġbecause": 1431,
      "com": 1432,
      "Ġinv": 1433,
      "ention": 1434,
      "anger": 1435,
      "Ġrather": 1436,
      "ĠMalefic": 1437,
      "Ġdef": 1438,
      "Ġlim": 1439,
      "Ġacross": 1440,
      "Ġbeasts": 1441,
      "cher": 1442,
      "Ġgrow": 1443,
      "Ġabilities": 1444,
      "Ġgive": 1445,
      "Ġreturn": 1446,
      "vie": 1447,
      "Ġfall": 1448,
      "Ġnat": 1449,
      "Ġsingle": 1450,
      "Ġincreas": 1451,
      "Ġfour": 1452,
      "Ġwound": 1453,
      "ann": 1454,
      "Ġreason": 1455,
      "Ġsupp": 1456,
      "iously": 1457,
      "Ġdemons": 1458,
      "Ġdirect": 1459,
      "ired": 1460,
      "ug": 1461,
      "ued": 1462,
      "Ġcult": 1463,
      "Ġpret": 1464,
      "Ġclearly": 1465,
      "Ġmean": 1466,
      "She": 1467,
      "ron": 1468,
      "ray": 1469,
      "Ġinside": 1470,
      "Ġpull": 1471,
      "Ġisland": 1472,
      "Ġmeant": 1473,
      "iting": 1474,
      "Ġstart": 1475,
      "owers": 1476,
      "amin": 1477,
      "ĠDao": 1478,
      "ner": 1479,
      "outh": 1480,
      "Ġdeath": 1481,
      "end": 1482,
      "Ġwom": 1483,
      "osm": 1484,
      "Ġhold": 1485,
      "ĠSoc": 1486,
      "Ġconf": 1487,
      "Ġbattle": 1488,
      "over": 1489,
      "Ġcity": 1490,
      "Ġones": 1491,
      "chem": 1492,
      "Ġslowly": 1493,
      "Ġstay": 1494,
      "Ġkilled": 1495,
      "Ġbest": 1496,
      "Ġfull": 1497,
      "ĠSociety": 1498,
      "Ġaura": 1499,
      "acob": 1500,
      "Ġnorm": 1501,
      "Ġgra": 1502,
      "Ġcore": 1503,
      "Ġgone": 1504,
      "Ġsurv": 1505,
      "ĠNot": 1506,
      "ret": 1507,
      "ashed": 1508,
      "Ġdisc": 1509,
      "Ġimmedi": 1510,
      "ored": 1511,
      "Ġresp": 1512,
      "ates": 1513,
      "acked": 1514,
      "ĠPer": 1515,
      "cial": 1516,
      "ub": 1517,
      "Ġweap": 1518,
      "Ġdays": 1519,
      "Ġwarri": 1520,
      "Ġfact": 1521,
      "ash": 1522,
      "Ġdro": 1523,
      "Ġtoget": 1524,
      "Ġtogether": 1525,
      "Ġind": 1526,
      "Ġidea": 1527,
      "Ġter": 1528,
      "ides": 1529,
      "ement": 1530,
      "oud": 1531,
      "Ġcre": 1532,
      "illed": 1533,
      "vely": 1534,
      "Ġcalled": 1535,
      "Ġstraight": 1536,
      "Ġ5": 1537,
      "Ġhur": 1538,
      "oun": 1539,
      "Ġtutorial": 1540,
      "Ġminut": 1541,
      "And": 1542,
      "Ġten": 1543,
      "irc": 1544,
      "Ġloc": 1545,
      "Ġfamily": 1546,
      "Ġbelie": 1547,
      "ident": 1548,
      "Ġfell": 1549,
      "Ġforce": 1550,
      "Ġpretty": 1551,
      "Ġsuddenly": 1552,
      "Ġbre": 1553,
      "Ġshadow": 1554,
      "Ġstopped": 1555,
      "ially": 1556,
      "oy": 1557,
      "Ġcoll": 1558,
      "ĠCosm": 1559,
      "inda": 1560,
      "ĠMagda": 1561,
      "Ġblack": 1562,
      "Ġmoving": 1563,
      "Ġexperi": 1564,
      "Jake": 1565,
      "elinda": 1566,
      "Ġspot": 1567,
      "Ġhid": 1568,
      "Ġhowever": 1569,
      "Ġav": 1570,
      "Ġcamp": 1571,
      "ĠSystem": 1572,
      "ĠOr": 1573,
      "Ġaxe": 1574,
      "Ġdamage": 1575,
      "med": 1576,
      "Ġdanger": 1577,
      "Ġblue": 1578,
      "iced": 1579,
      "ĠNo": 1580,
      "ĠOn": 1581,
      "Ġmain": 1582,
      "ption": 1583,
      "Ġeveryone": 1584,
      "its": 1585,
      "Ġfig": 1586,
      "Ġduring": 1587,
      "ively": 1588,
      "str": 1589,
      "az": 1590,
      "Ġappro": 1591,
      "Ġguess": 1592,
      "Ġes": 1593,
      "ality": 1594,
      "icked": 1595,
      "lood": 1596,
      "Ġinterest": 1597,
      "Not": 1598,
      "oke": 1599,
      "uc": 1600,
      "Ġarri": 1601,
      "Ġdecided": 1602,
      "Ġmouth": 1603,
      "Ġvar": 1604,
      "cer": 1605,
      "Ġtak": 1606,
      "ically": 1607,
      "Ġcoming": 1608,
      "Ġdeep": 1609,
      "ĠEmir": 1610,
      "Ġim": 1611,
      "ones": 1612,
      "unge": 1613,
      "Ġfighting": 1614,
      "Ġbro": 1615,
      "Ġunderstand": 1616,
      "ps": 1617,
      "oins": 1618,
      "read": 1619,
      "form": 1620,
      "Ġalways": 1621,
      "grade": 1622,
      "Ġprot": 1623,
      "Ġtaking": 1624,
      "Ġdou": 1625,
      "vers": 1626,
      "ribut": 1627,
      "ĠEven": 1628,
      "Ġwind": 1629,
      "Ġchest": 1630,
      "With": 1631,
      "Ġcirc": 1632,
      "Ġcomb": 1633,
      "Ġsub": 1634,
      "ception": 1635,
      "ertain": 1636,
      "amina": 1637,
      "Ġopp": 1638,
      "Ġland": 1639,
      "Ġstop": 1640,
      "Ġstats": 1641,
      "where": 1642,
      "arp": 1643,
      "Ġstronger": 1644,
      "ĠUn": 1645,
      "Ġfurther": 1646,
      "Ġnodded": 1647,
      "Ġtop": 1648,
      "ape": 1649,
      "Ġadv": 1650,
      "Ġdistance": 1651,
      "Ġbar": 1652,
      "Ġgener": 1653,
      "Ġburn": 1654,
      "aces": 1655,
      "Ġsmile": 1656,
      "idd": 1657,
      "Ġye": 1658,
      "irit": 1659,
      "rol": 1660,
      "Ġslightly": 1661,
      "ĠAl": 1662,
      "ia": 1663,
      "Ġaff": 1664,
      "ĠMaw": 1665,
      "Ġclear": 1666,
      "),": 1667,
      "Oh": 1668,
      "iled": 1669,
      "Ġexact": 1670,
      "ountain": 1671,
      "Ġopened": 1672,
      "Ġimmediately": 1673,
      "Ġran": 1674,
      "ned": 1675,
      "Ġwat": 1676,
      "Ġchang": 1677,
      "Ġimpro": 1678,
      "Ġgiant": 1679,
      "Ġlater": 1680,
      "Ġsqu": 1681,
      "Ġca": 1682,
      "ising": 1683,
      "alth": 1684,
      "Ġnearly": 1685,
      "ĠOne": 1686,
      "fort": 1687,
      "Ġlow": 1688,
      "ung": 1689,
      "ho": 1690,
      "Ġcar": 1691,
      "ĠJacob": 1692,
      "ĠBelinda": 1693,
      "ndred": 1694,
      "ards": 1695,
      "??": 1696,
      "Ġstep": 1697,
      "ches": 1698,
      "by": 1699,
      "ĠSo": 1700,
      "Ġtry": 1701,
      "Ġanswered": 1702,
      "wor": 1703,
      "ages": 1704,
      "ken": 1705,
      "fused": 1706,
      "His": 1707,
      "Ġhig": 1708,
      "ane": 1709,
      "urs": 1710,
      "ĠAfter": 1711,
      "'re": 1712,
      "ences": 1713,
      "Ġmiss": 1714,
      "Ġspell": 1715,
      "Ġcontinued": 1716,
      "fess": 1717,
      "ract": 1718,
      "ift": 1719,
      "omp": 1720,
      "selves": 1721,
      "Ġspeed": 1722,
      "Ġedge": 1723,
      "ouch": 1724,
      "Ġbuilding": 1725,
      "ĠCosmic": 1726,
      "Ġnormal": 1727,
      "ee": 1728,
      "Ġsens": 1729,
      "Ġstri": 1730,
      "Ġdisapp": 1731,
      "Ġfive": 1732,
      "Ġhundred": 1733,
      "aded": 1734,
      "Ġconst": 1735,
      "Ġeye": 1736,
      "ĠSp": 1737,
      "bs": 1738,
      "fully": 1739,
      "xus": 1740,
      "blem": 1741,
      "Ġrunning": 1742,
      "Ġiron": 1743,
      "Ġdet": 1744,
      "Ġred": 1745,
      "ĠHowever": 1746,
      "how": 1747,
      "ined": 1748,
      "Ġcreature": 1749,
      "Ġshield": 1750,
      "Ġawak": 1751,
      "cing": 1752,
      "Ġanyone": 1753,
      "istance": 1754,
      "Ġgotten": 1755,
      "Ġwoman": 1756,
      "An": 1757,
      "anced": 1758,
      "ĠBe": 1759,
      "Ġonto": 1760,
      "Ġentered": 1761,
      "uff": 1762,
      "Ġcurrent": 1763,
      "Ġupon": 1764,
      "Ġmeet": 1765,
      "man": 1766,
      "Ġfollowed": 1767,
      "Ġitem": 1768,
      "ĠEnergy": 1769,
      "cri": 1770,
      "arent": 1771,
      "Ġlevels": 1772,
      "Ġeasily": 1773,
      "Ġbegan": 1774,
      "Ġenc": 1775,
      "Ġbecome": 1776,
      "Ġhours": 1777,
      "Ġshort": 1778,
      "Ġexc": 1779,
      "Ġmonth": 1780,
      "Ġleave": 1781,
      "After": 1782,
      "inking": 1783,
      "umber": 1784,
      "sit": 1785,
      "Ġap": 1786,
      "Ġpushed": 1787,
      "ocked": 1788,
      "Ġfloor": 1789,
      "ald": 1790,
      "Ġmatter": 1791,
      "Ġtre": 1792,
      "Ġref": 1793,
      "Ġready": 1794,
      "Ġskin": 1795,
      "ipped": 1796,
      "Ġfle": 1797,
      "Ġmass": 1798,
      "ĠWilliam": 1799,
      "pted": 1800,
      "te": 1801,
      "Ġmountain": 1802,
      "Ġhesit": 1803,
      "Ġrequ": 1804,
      "ĠAll": 1805,
      "unn": 1806,
      "Ġinform": 1807,
      "ĠNeil": 1808,
      "Ġheav": 1809,
      "enty": 1810,
      "Ġlost": 1811,
      "ĠNexus": 1812,
      "the": 1813,
      "vern": 1814,
      "Ġty": 1815,
      "ins": 1816,
      "Ġdag": 1817,
      "rought": 1818,
      "Ġminutes": 1819,
      "Ġcap": 1820,
      "Ġrock": 1821,
      "Ġweren": 1822,
      "Ġproper": 1823,
      "Ġpassed": 1824,
      "Ġtaken": 1825,
      "Ġbur": 1826,
      "hys": 1827,
      "Ġlau": 1828,
      "Ġexactly": 1829,
      "Re": 1830,
      "Yes": 1831,
      "Ġproblem": 1832,
      "Ġmetal": 1833,
      "rom": 1834,
      "Ġdri": 1835,
      "ances": 1836,
      "Ġwee": 1837,
      "Ġdoub": 1838,
      "Ġrep": 1839,
      "Ġtimes": 1840,
      "Ġcertain": 1841,
      "Ġmust": 1842,
      "ashing": 1843,
      "Ġisn": 1844,
      "Ġkilling": 1845,
      "Ġforest": 1846,
      "Ġsign": 1847,
      "Ġfast": 1848,
      "Ġpri": 1849,
      "Ġleaving": 1850,
      "Ġnoticed": 1851,
      "ungeon": 1852,
      "Ġgold": 1853,
      "Ġadventurers": 1854,
      "Ġsum": 1855,
      "Ġhor": 1856,
      "Ġwalking": 1857,
      "bably": 1858,
      "Ġtree": 1859,
      "ano": 1860,
      "Ġsol": 1861,
      "Ġtrans": 1862,
      "Ġarms": 1863,
      "Ġsever": 1864,
      "Ġattacks": 1865,
      "Ġra": 1866,
      "Ġarray": 1867,
      "Ġamount": 1868,
      "iliar": 1869,
      "Ġbreath": 1870,
      "Ġ4": 1871,
      "ĠCh": 1872,
      "Ġdoesn": 1873,
      "Ġgreen": 1874,
      "ĠHarn": 1875,
      "Ġwalls": 1876,
      "Ġhappened": 1877,
      "bing": 1878,
      "Ġdue": 1879,
      "Ġcompared": 1880,
      "Ġlonger": 1881,
      "ister": 1882,
      "Ġextre": 1883,
      "Ġsitu": 1884,
      "Ġthemselves": 1885,
      "ĠEvie": 1886,
      "Ġperhaps": 1887,
      "eath": 1888,
      "ĠJory": 1889,
      "Ġbow": 1890,
      "Ġsomehow": 1891,
      "ledge": 1892,
      "rat": 1893,
      "allen": 1894,
      "Ġpossible": 1895,
      "Un": 1896,
      "Ġcovered": 1897,
      "Ġoutside": 1898,
      "ichard": 1899,
      "fession": 1900,
      "mb": 1901,
      "Ġsort": 1902,
      "nding": 1903,
      "Ġcent": 1904,
      "Ġtrue": 1905,
      "Ġguy": 1906,
      "Ġwide": 1907,
      "Ġmar": 1908,
      "Ġbring": 1909,
      "ian": 1910,
      "Ġshook": 1911,
      "ĠFor": 1912,
      "Ġlegs": 1913,
      "Ġseveral": 1914,
      "Ġcloser": 1915,
      "uly": 1916,
      "Ġbrought": 1917,
      "ĠWhen": 1918,
      "Ġwords": 1919,
      "Ġexperience": 1920,
      "esh": 1921,
      "!âĢĿ": 1922,
      "Ġsent": 1923,
      "Ġboo": 1924,
      "Ġpast": 1925,
      "Ġalone": 1926,
      "Ġtruly": 1927,
      "Ġprov": 1928,
      "iverse": 1929,
      "ently": 1930,
      "Ġleader": 1931,
      "Ġz": 1932,
      "Ġmeters": 1933,
      "raw": 1934,
      "Ġevol": 1935,
      "iness": 1936,
      "reet": 1937,
      "Ġremem": 1938,
      "Ġstanding": 1939,
      "Ġname": 1940,
      "ĠAr": 1941,
      "Ġnear": 1942,
      "Ġinformation": 1943,
      "ular": 1944,
      "Ġsim": 1945,
      "ĠHun": 1946,
      "Ġimport": 1947,
      "Ġhigher": 1948,
      "Ġcontrol": 1949,
      "Ġvarious": 1950,
      "Ġnight": 1951,
      "ĠHer": 1952,
      "Ġship": 1953,
      "Do": 1954,
      "Ġstrength": 1955,
      "Ġchance": 1956,
      "Ġfinal": 1957,
      "Ġwon": 1958,
      "Ġlist": 1959,
      "Ġread": 1960,
      "Ġign": 1961,
      "Ġmess": 1962,
      "Ġjump": 1963,
      "Ġseconds": 1964,
      "Ġtor": 1965,
      "Ġworked": 1966,
      "Ġthrow": 1967,
      "Ġyoun": 1968,
      "ooking": 1969,
      "Ġarmor": 1970,
      "Well": 1971,
      "edit": 1972,
      "Ġfilled": 1973,
      "iddle": 1974,
      "aching": 1975,
      "Ġalchem": 1976,
      "Ġspl": 1977,
      "Ġfamiliar": 1978,
      "pic": 1979,
      "unnel": 1980,
      "lier": 1981,
      "Ġwave": 1982,
      "Ġfree": 1983,
      "pite": 1984,
      "irl": 1985,
      "Ġtel": 1986,
      "Ġho": 1987,
      "Ġadded": 1988,
      "'ve": 1989,
      "cy": 1990,
      "Ġshot": 1991,
      "Ġenemy": 1992,
      "ĠTo": 1993,
      "iling": 1994,
      "Ġdeal": 1995,
      "Ġcol": 1996,
      "Ġdest": 1997,
      "Ġeff": 1998,
      "Ġstarting": 1999,
      "Ġsituation": 2000,
      "Ġhall": 2001,
      "Ġhome": 2002,
      "unch": 2003,
      "Ġpulled": 2004,
      "head": 2005,
      "ime": 2006,
      "Ġgiving": 2007,
      "Ġprotect": 2008,
      "Cl": 2009,
      "gress": 2010,
      "Ġtunnel": 2011,
      "eed": 2012,
      "Ġexplained": 2013,
      "ĠAtar": 2014,
      "Ġsurprised": 2015,
      "ĠAdventure": 2016,
      "ges": 2017,
      "iqu": 2018,
      "Ġtit": 2019,
      "Ġspread": 2020,
      "ĠVess": 2021,
      "Ġprep": 2022,
      "Al": 2023,
      "Ġphys": 2024,
      "Ġprom": 2025,
      "Ġabsor": 2026,
      "sed": 2027,
      "ĠRichard": 2028,
      "Ġmagical": 2029,
      "Ġcrystal": 2030,
      "Ġpie": 2031,
      "'m": 2032,
      "Qu": 2033,
      "Ġwond": 2034,
      "ĠThen": 2035,
      "Ġdirection": 2036,
      "Sh": 2037,
      "Ġbus": 2038,
      "Ġago": 2039,
      "Ġscream": 2040,
      "ax": 2041,
      "Ġwood": 2042,
      "Ġdel": 2043,
      "Ġwrong": 2044,
      "Why": 2045,
      "onus": 2046,
      "onze": 2047,
      "used": 2048,
      "Ġbronze": 2049,
      "Ġpract": 2050,
      "line": 2051,
      "lle": 2052,
      "Ġnumber": 2053,
      "key": 2054,
      "ts": 2055,
      "ingly": 2056,
      "Ġthick": 2057,
      "Ġhope": 2058,
      "Ġsle": 2059,
      "Ġfail": 2060,
      "anie": 2061,
      "ows": 2062,
      "Ġjoin": 2063,
      "anielle": 2064,
      "Ġfine": 2065,
      "ĠStrength": 2066,
      "Ġclosed": 2067,
      "Ġgained": 2068,
      "uth": 2069,
      "ains": 2070,
      "Ġsilver": 2071,
      "ution": 2072,
      "ĠPoint": 2073,
      "hered": 2074,
      "alm": 2075,
      "Ġweird": 2076,
      "Ġsimple": 2077,
      "Ġhealing": 2078,
      "Ġearlier": 2079,
      "Ġfocused": 2080,
      "cc": 2081,
      "Ġsun": 2082,
      "ouse": 2083,
      "Ġfaster": 2084,
      "Ġhair": 2085,
      "Ġteeth": 2086,
      "Ġincurs": 2087,
      "Ġbegin": 2088,
      "ices": 2089,
      "Ġflesh": 2090,
      "ĠAsano": 2091,
      "Ġmaybe": 2092,
      "Ġarrived": 2093,
      "Ġtelep": 2094,
      "pect": 2095,
      "Ġdied": 2096,
      "Ġworth": 2097,
      "ensive": 2098,
      "Ġquestion": 2099,
      "like": 2100,
      "Ġmiddle": 2101,
      "ogn": 2102,
      "Ġearth": 2103,
      "Ġnatur": 2104,
      "Ġsize": 2105,
      "Ġsharp": 2106,
      "Ġhumans": 2107,
      "Ġyoung": 2108,
      "Ġbook": 2109,
      "orn": 2110,
      "room": 2111,
      "acking": 2112,
      "Ġwhatever": 2113,
      "Ġhurt": 2114,
      "'ll": 2115,
      "reed": 2116,
      "isted": 2117,
      "Ġfrown": 2118,
      "Ġactiv": 2119,
      "mely": 2120,
      "Ġmen": 2121,
      "Ġthrew": 2122,
      "umed": 2123,
      "Ġcho": 2124,
      "ĠLord": 2125,
      "Ġsurround": 2126,
      "Ġgiven": 2127,
      "Ġwarrior": 2128,
      "stral": 2129,
      "apped": 2130,
      "Ġrat": 2131,
      "Ġorder": 2132,
      "Ġtraining": 2133,
      "ĠVoid": 2134,
      "Ġeasy": 2135,
      "Ġcultiv": 2136,
      "ĠY": 2137,
      "Ġcase": 2138,
      "Ġpill": 2139,
      "ife": 2140,
      "Ġcou": 2141,
      "Ġhell": 2142,
      "Ġpos": 2143,
      "ĠMaster": 2144,
      "Ġswe": 2145,
      "Ġexpected": 2146,
      "day": 2147,
      "Then": 2148,
      "ines": 2149,
      "Ġpress": 2150,
      "Ġbas": 2151,
      "ointed": 2152,
      "Ġknowledge": 2153,
      "Ġturning": 2154,
      "ĠWhile": 2155,
      "Ġesc": 2156,
      "aly": 2157,
      "Ġann": 2158,
      "ĠEvery": 2159,
      "airs": 2160,
      "Ġbelow": 2161,
      "ĠSkills": 2162,
      "Ġyears": 2163,
      "Ġextremely": 2164,
      "Ġclot": 2165,
      "Ġmeans": 2166,
      "Ġenemies": 2167,
      "Ġweapon": 2168,
      "Ġstamina": 2169,
      "Ġprobably": 2170,
      "Ġincreased": 2171,
      "Ġco": 2172,
      "Ġmult": 2173,
      "Ġline": 2174,
      "ĠBlood": 2175,
      "Ġpowers": 2176,
      "Ġpotions": 2177,
      "Ġbeneath": 2178,
      "ĠHunter": 2179,
      "Ġlearn": 2180,
      "ously": 2181,
      "Ġfigure": 2182,
      "Ġpres": 2183,
      "Ġtowards": 2184,
      "Ġconsid": 2185,
      "Ġcombat": 2186,
      "Ġcaught": 2187,
      "ĠCoins": 2188,
      "Ġworse": 2189,
      "Ġprofession": 2190,
      "Ġroll": 2191,
      "Ġled": 2192,
      "Ġrecogn": 2193,
      "Ġbreak": 2194,
      "At": 2195,
      "dition": 2196,
      "Ġple": 2197,
      "lict": 2198,
      "wood": 2199,
      "aybe": 2200,
      "ists": 2201,
      "Ġbecame": 2202,
      "eah": 2203,
      "attered": 2204,
      "Ġthr": 2205,
      "ĠSome": 2206,
      "rief": 2207,
      "Ġentirely": 2208,
      "Ġsummon": 2209,
      "ery": 2210,
      "arth": 2211,
      "ma": 2212,
      "Ġchanged": 2213,
      "Ġapart": 2214,
      "Ġment": 2215,
      "Ġstones": 2216,
      "Ġchange": 2217,
      "Ġcomm": 2218,
      "Ġsuc": 2219,
      "ĠOf": 2220,
      "wards": 2221,
      "Ġattention": 2222,
      "Ġ10": 2223,
      "):": 2224,
      "ex": 2225,
      "ey": 2226,
      "inct": 2227,
      "Ġgirl": 2228,
      "Ġcommon": 2229,
      "ĠPr": 2230,
      "Ġmassive": 2231,
      "Ġbright": 2232,
      "ER": 2233,
      "aze": 2234,
      "oak": 2235,
      "Ġastral": 2236,
      "res": 2237,
      "ĠGreen": 2238,
      "ior": 2239,
      "arity": 2240,
      "Ġru": 2241,
      "Ġrough": 2242,
      "ousand": 2243,
      "Ġmonkey": 2244,
      "Ġvision": 2245,
      "Of": 2246,
      "Ġswing": 2247,
      "Ġdropped": 2248,
      "Ġhidden": 2249,
      "dd": 2250,
      "ived": 2251,
      "arget": 2252,
      "ilar": 2253,
      "Ġspecial": 2254,
      "Ġneck": 2255,
      "Ġjob": 2256,
      "rence": 2257,
      "kes": 2258,
      "inally": 2259,
      "Ġhon": 2260,
      "Ġaren": 2261,
      "Ġtalking": 2262,
      "bers": 2263,
      "fted": 2264,
      "ram": 2265,
      "Ġtable": 2266,
      "Ġdungeon": 2267,
      "Ġhear": 2268,
      "orted": 2269,
      "aled": 2270,
      "ents": 2271,
      "Ġwhite": 2272,
      "Ġrealized": 2273,
      "power": 2274,
      "uild": 2275,
      "yond": 2276,
      "itality": 2277,
      "Ġfing": 2278,
      "Ġequ": 2279,
      "ried": 2280,
      "uman": 2281,
      "Ġconside": 2282,
      "Ġdisappe": 2283,
      "Ġdagger": 2284,
      "Ġconsidered": 2285,
      "omb": 2286,
      "Ġval": 2287,
      "Ġhealth": 2288,
      "Ġimag": 2289,
      "Ġtrees": 2290,
      "Ġtem": 2291,
      "int": 2292,
      "Ġsus": 2293,
      "Is": 2294,
      "lic": 2295,
      "uct": 2296,
      "Ġpat": 2297,
      "Ġplaced": 2298,
      "Ġattem": 2299,
      "Ġlarger": 2300,
      "Ġbelieve": 2301,
      "ination": 2302,
      "Ġheart": 2303,
      "oming": 2304,
      "ics": 2305,
      "Ġris": 2306,
      "Ġblade": 2307,
      ")],": 2308,
      "lud": 2309,
      "Ġbrief": 2310,
      "ĠRes": 2311,
      "ĠGell": 2312,
      "ĠPoints": 2313,
      "ĠZ": 2314,
      "Ġhappy": 2315,
      "Ġtrou": 2316,
      "Ġsight": 2317,
      "otion": 2318,
      "ĠDanielle": 2319,
      "Ġimpress": 2320,
      "ĠAtwood": 2321,
      "Ġpushing": 2322,
      "ĠPerception": 2323,
      "Ġsimilar": 2324,
      "fect": 2325,
      "wick": 2326,
      "adwick": 2327,
      "Ġwaiting": 2328,
      "Ġstepped": 2329,
      "br": 2330,
      "Ġmut": 2331,
      "Ġessences": 2332,
      "].": 2333,
      "what": 2334,
      "incent": 2335,
      "Ġsig": 2336,
      "Ġwatched": 2337,
      "ues": 2338,
      "akes": 2339,
      "Ġslam": 2340,
      "Ġpicked": 2341,
      "icking": 2342,
      "Ġang": 2343,
      "acks": 2344,
      "Ġcloak": 2345,
      "Ġavoid": 2346,
      "rease": 2347,
      "aper": 2348,
      "Ġunc": 2349,
      "Ġsky": 2350,
      "Ġfought": 2351,
      "Ġthousand": 2352,
      "ushed": 2353,
      "lu": 2354,
      "Ġer": 2355,
      "Ġtarget": 2356,
      "Ġsix": 2357,
      "esides": 2358,
      "Ġdod": 2359,
      "Ġcham": 2360,
      "Ġdarkness": 2361,
      "Ġsitting": 2362,
      "Chap": 2363,
      "ha": 2364,
      "ric": 2365,
      "Ġ-": 2366,
      "Ġeat": 2367,
      "ĠKing": 2368,
      "Chapter": 2369,
      "Just": 2370,
      "Ġforced": 2371,
      "ventory": 2372,
      "Ġsurprise": 2373,
      "gan": 2374,
      "Ġdie": 2375,
      "Ġbeyond": 2376,
      "Ġrele": 2377,
      "ief": 2378,
      "Ġarcher": 2379,
      "Ġstrange": 2380,
      "Ġice": 2381,
      "Ġask": 2382,
      "Ġallowed": 2383,
      "Ġsmiled": 2384,
      "ghed": 2385,
      "Ġfut": 2386,
      "Ġtow": 2387,
      "ades": 2388,
      "Ġrit": 2389,
      "Ġchallen": 2390,
      "Ġcontract": 2391,
      "Ġshoulder": 2392,
      "Ġfoot": 2393,
      "anted": 2394,
      "Ġcloud": 2395,
      "Ġcompl": 2396,
      "aterial": 2397,
      "ruct": 2398,
      "Ġempt": 2399,
      "When": 2400,
      "oul": 2401,
      "urance": 2402,
      "Ġalive": 2403,
      "Ġvill": 2404,
      "Ġawakening": 2405,
      "Ġquiet": 2406,
      "Ġholding": 2407,
      "On": 2408,
      "Ġnotice": 2409,
      "Ġamong": 2410,
      "Ġclean": 2411,
      "Ġmonths": 2412,
      "Ġheavy": 2413,
      "Ġeffort": 2414,
      "Ġlay": 2415,
      "arrow": 2416,
      "Ġreturned": 2417,
      "Ġitems": 2418,
      "fer": 2419,
      "Ġsour": 2420,
      "Ġfun": 2421,
      "Ġluck": 2422,
      "Ġinventory": 2423,
      "Ġdescri": 2424,
      "ify": 2425,
      "ĠMagic": 2426,
      "Ġgovern": 2427,
      "Ġuseful": 2428,
      "Yeah": 2429,
      "co": 2430,
      "Ġgain": 2431,
      "stead": 2432,
      "Ġyourself": 2433,
      "umbled": 2434,
      "common": 2435,
      "Ġgrab": 2436,
      "Ġbonus": 2437,
      "asp": 2438,
      "Ġmaterial": 2439,
      "Ġyell": 2440,
      "ified": 2441,
      "aim": 2442,
      "vl": 2443,
      "Ġve": 2444,
      "Ġmus": 2445,
      "oring": 2446,
      "lea": 2447,
      "Ġsomewhere": 2448,
      "osed": 2449,
      "Ġattribut": 2450,
      "Ġpotent": 2451,
      "Wh": 2452,
      "stone": 2453,
      "Ġnotific": 2454,
      "ĠGr": 2455,
      "Ġappear": 2456,
      "cially": 2457,
      "pse": 2458,
      "Ġwild": 2459,
      "Ġuns": 2460,
      "Ġshow": 2461,
      "Ġseeing": 2462,
      "Ġarrows": 2463,
      "Ġstrike": 2464,
      "Ġthird": 2465,
      "Ġyes": 2466,
      "Ġpotion": 2467,
      "Ġ6": 2468,
      "Ġtest": 2469,
      "Ġwalk": 2470,
      "Ġcouple": 2471,
      "gest": 2472,
      "Ġmix": 2473,
      "Ġsand": 2474,
      "Ġundead": 2475,
      "Ġcomplete": 2476,
      "ilia": 2477,
      "ĠSpirit": 2478,
      "ique": 2479,
      "10": 2480,
      "Ġpond": 2481,
      "Ġreach": 2482,
      "rig": 2483,
      "Ġclim": 2484,
      "Ġchild": 2485,
      "Ġworking": 2486,
      "Ġblast": 2487,
      "Ġtalk": 2488,
      "Ġcurrently": 2489,
      "Ġfuture": 2490,
      "for": 2491,
      "Ġearned": 2492,
      "Ġconn": 2493,
      "ortun": 2494,
      "Ġbroken": 2495,
      "nder": 2496,
      "ĠJust": 2497,
      "Ġplay": 2498,
      "Ġperfect": 2499,
      "ror": 2500,
      "Ġport": 2501,
      "Ġgrin": 2502,
      "ĠStat": 2503,
      "Ġgovernment": 2504,
      "ets": 2505,
      "ĠEarth": 2506,
      "Ġtwenty": 2507,
      "Ġtype": 2508,
      "gers": 2509,
      "zy": 2510,
      "oured": 2511,
      "ĠAg": 2512,
      "Your": 2513,
      "Ġlightning": 2514,
      "aws": 2515,
      "Ġimportant": 2516,
      "ĠResistance": 2517,
      "My": 2518,
      "ec": 2519,
      "itting": 2520,
      "ndurance": 2521,
      "acing": 2522,
      "Ġlearned": 2523,
      "rif": 2524,
      "ĠCon": 2525,
      "ĠVincent": 2526,
      "ushroom": 2527,
      "aff": 2528,
      "dom": 2529,
      "more": 2530,
      "inity": 2531,
      "ommon": 2532,
      "Ġrare": 2533,
      "roll": 2534,
      "Ġwait": 2535,
      "ibly": 2536,
      "Ġgeneral": 2537,
      "Ġincursion": 2538,
      "Ġhonest": 2539,
      "ĠGeller": 2540,
      "Ġfear": 2541,
      "Ġexpect": 2542,
      "Ġinstantly": 2543,
      "pecially": 2544,
      "Ġobs": 2545,
      "ault": 2546,
      "hest": 2547,
      "Ġocc": 2548,
      "ĠTheir": 2549,
      "ellig": 2550,
      "Ġobject": 2551,
      "Ġcrystals": 2552,
      "Ġmist": 2553,
      "ĠDo": 2554,
      "ĠNow": 2555,
      "arently": 2556,
      "Ġthro": 2557,
      "ĠIs": 2558,
      "ĠThadwick": 2559,
      "Ġmostly": 2560,
      "Ġcreated": 2561,
      "Ġmembers": 2562,
      "Ġdirectly": 2563,
      "Man": 2564,
      "els": 2565,
      "ives": 2566,
      "Ġweapons": 2567,
      "Ġweeks": 2568,
      "not": 2569,
      "Ġhide": 2570,
      "Ġstab": 2571,
      "Ġhelped": 2572,
      "Ġdamn": 2573,
      "Are": 2574,
      "rect": 2575,
      "Ġlvl": 2576,
      "Ġrap": 2577,
      "Ġanswer": 2578,
      "ĠĠ": 2579,
      "Ġreact": 2580,
      "ĠFree": 2581,
      "ĠEss": 2582,
      "Ġsmell": 2583,
      "Ġbott": 2584,
      "Ġdrag": 2585,
      "wh": 2586,
      "Ġill": 2587,
      "Ġcost": 2588,
      "Ġgods": 2589,
      "Ġfriends": 2590,
      "Ġopportun": 2591,
      "Ġphysical": 2592,
      "sing": 2593,
      "Ġwol": 2594,
      "Ġdefe": 2595,
      "Ġremaining": 2596,
      "Ġended": 2597,
      "Ġchamber": 2598,
      "Ġloud": 2599,
      "Ġthreat": 2600,
      "orry": 2601,
      "Ġrace": 2602,
      "IN": 2603,
      "Ġdraw": 2604,
      "ters": 2605,
      "Ġknown": 2606,
      "Ġremind": 2607,
      "ias": 2608,
      "Ġtall": 2609,
      "Ġmill": 2610,
      "Ġmedit": 2611,
      "Ġfract": 2612,
      "ils": 2613,
      "ilt": 2614,
      "ĠMost": 2615,
      "Ġprogress": 2616,
      "Ġadm": 2617,
      "ear": 2618,
      "Ġodd": 2619,
      "Ġcave": 2620,
      "Ġrepl": 2621,
      "Ġkid": 2622,
      "ĠWis": 2623,
      "Ġherself": 2624,
      "ension": 2625,
      "Ġemerg": 2626,
      "Ġpossess": 2627,
      "Ġwounds": 2628,
      "Ġempty": 2629,
      ").": 2630,
      "All": 2631,
      "zen": 2632,
      "Ġbal": 2633,
      "Ġoften": 2634,
      "ĠHave": 2635,
      "irt": 2636,
      "Ġsomewhat": 2637,
      "ptions": 2638,
      "ugg": 2639,
      "Ġwarriors": 2640,
      "Pit": 2641,
      "Ġmention": 2642,
      "ames": 2643,
      "Ġconfused": 2644,
      "oney": 2645,
      "Ġglass": 2646,
      "Ġexplod": 2647,
      "Ġcharge": 2648,
      "Ġcreate": 2649,
      "Ġlaughed": 2650,
      "Ġfood": 2651,
      "Ġburst": 2652,
      "Ġsel": 2653,
      "Ġfield": 2654,
      "lying": 2655,
      "Ġshape": 2656,
      "Ġspent": 2657,
      "iple": 2658,
      "Ġincrease": 2659,
      "wise": 2660,
      "Ġcount": 2661,
      "Ġmel": 2662,
      "acted": 2663,
      "Ġanim": 2664,
      "ĠAre": 2665,
      "ĠRick": 2666,
      "ords": 2667,
      "Ġguard": 2668,
      "ude": 2669,
      "Ġhoped": 2670,
      "Ġshadows": 2671,
      "Ġimprove": 2672,
      "Ġhole": 2673,
      "Ġspec": 2674,
      "Ġ0": 2675,
      "Ġfre": 2676,
      "ask": 2677,
      "Ġinteresting": 2678,
      "Ġwings": 2679,
      "irty": 2680,
      "Ġliving": 2681,
      "tern": 2682,
      "Ġdep": 2683,
      "Ġword": 2684,
      "ording": 2685,
      "Ġresult": 2686,
      "Ġraised": 2687,
      "face": 2688,
      "Ġbran": 2689,
      "Ġarmy": 2690,
      "Ġdespite": 2691,
      "Ġthoughts": 2692,
      "Ġsurviv": 2693,
      "Ġwar": 2694,
      "Ġla": 2695,
      "Ġmeat": 2696,
      "Ġobv": 2697,
      "Ġdangerous": 2698,
      "Ġposition": 2699,
      "rin": 2700,
      "Ġaffect": 2701,
      "ators": 2702,
      "Ġinj": 2703,
      "Ġevent": 2704,
      "icated": 2705,
      "ompan": 2706,
      "For": 2707,
      "Ġpan": 2708,
      "Ġstared": 2709,
      "Ġdoubt": 2710,
      "Ġsighed": 2711,
      "mm": 2712,
      "Ġident": 2713,
      "Ġwarm": 2714,
      "Ġhouse": 2715,
      "Ġgrew": 2716,
      "cho": 2717,
      "Ġglance": 2718,
      "Ġbox": 2719,
      "ĠPerhaps": 2720,
      "elligence": 2721,
      "One": 2722,
      "Ġtou": 2723,
      "aned": 2724,
      "Ġgri": 2725,
      "Ġstor": 2726,
      "Ġrece": 2727,
      "Ġwhether": 2728,
      "rupted": 2729,
      "Ġbooks": 2730,
      "ĠGreenstone": 2731,
      "Rufus": 2732,
      "ait": 2733,
      "ining": 2734,
      "Ġble": 2735,
      "Ġbased": 2736,
      "erv": 2737,
      "Ġthinking": 2738,
      "ĠPort": 2739,
      "olog": 2740,
      "Ġnature": 2741,
      "Ġburning": 2742,
      "ĠPrim": 2743,
      "Ġthroat": 2744,
      "Le": 2745,
      "Ġhandle": 2746,
      "abri": 2747,
      "Ġspear": 2748,
      "immar": 2749,
      "Ġpartic": 2750,
      "Common": 2751,
      "Ġgather": 2752,
      "ĠVessilia": 2753,
      "Don": 2754,
      "Ġsphere": 2755,
      "ĠWhy": 2756,
      "ocks": 2757,
      "rug": 2758,
      "Ġinstinct": 2759,
      "aked": 2760,
      "kn": 2761,
      "ming": 2762,
      "men": 2763,
      "ĠMr": 2764,
      "ĠCont": 2765,
      "ĠLike": 2766,
      "Ġcomple": 2767,
      "Ġchec": 2768,
      "athered": 2769,
      "ency": 2770,
      "Ġmushroom": 2771,
      "iding": 2772,
      "ĠFrom": 2773,
      "ĠTr": 2774,
      "Ġimposs": 2775,
      "Ġgrowing": 2776,
      "Ġremember": 2777,
      "Ġritual": 2778,
      "Ġpick": 2779,
      "Ġstag": 2780,
      "ots": 2781,
      "ĠMy": 2782,
      "rap": 2783,
      "ateo": 2784,
      "Ġpush": 2785,
      "Ġspotted": 2786,
      "work": 2787,
      "Ġ7": 2788,
      "Ġtreas": 2789,
      "asper": 2790,
      "Ġpa": 2791,
      "Ġpen": 2792,
      "Ġpir": 2793,
      "Ġstup": 2794,
      "oth": 2795,
      "ager": 2796,
      "Ġleather": 2797,
      "Ġprodu": 2798,
      "cious": 2799,
      "Ġsister": 2800,
      "raid": 2801,
      "Ġbodies": 2802,
      "Ġglanced": 2803,
      "Ġrequire": 2804,
      "Ġahead": 2805,
      "Ġsoul": 2806,
      "Ġpal": 2807,
      "Ġgro": 2808,
      "Ġeng": 2809,
      "Ġworry": 2810,
      "Ġusually": 2811,
      "Ġroughly": 2812,
      "come": 2813,
      "zie": 2814,
      "Ġcover": 2815,
      "aint": 2816,
      "ulation": 2817,
      "ection": 2818,
      "graded": 2819,
      "ev": 2820,
      "wo": 2821,
      "Ġaf": 2822,
      "Ġfather": 2823,
      "ĠPo": 2824,
      "Ġcreatures": 2825,
      "Ġeffects": 2826,
      "tain": 2827,
      "uit": 2828,
      "Ġut": 2829,
      "Ġcrow": 2830,
      "Ġmor": 2831,
      "Ġinit": 2832,
      "unt": 2833,
      "Ġexpress": 2834,
      "However": 2835,
      "Ġthrowing": 2836,
      "Ġsleep": 2837,
      "pected": 2838,
      "Ġcast": 2839,
      "Ġmoney": 2840,
      "Ġloot": 2841,
      "Ġnice": 2842,
      "ĠNew": 2843,
      "Ġstrugg": 2844,
      "Effect": 2845,
      "light": 2846,
      "Ġshowed": 2847,
      "ĠMer": 2848,
      "Ġfinding": 2849,
      "Ġcircle": 2850,
      "Ġdisappeared": 2851,
      "itted": 2852,
      "ator": 2853,
      "Ġmark": 2854,
      "Ġsafe": 2855,
      "Ġshit": 2856,
      "usion": 2857,
      "antage": 2858,
      "Ġsoft": 2859,
      "Ġaware": 2860,
      "Ġbenef": 2861,
      "iasma": 2862,
      "Ġstupid": 2863,
      "Ch": 2864,
      "Pro": 2865,
      "enzie": 2866,
      "Ġpointed": 2867,
      "Ġstuck": 2868,
      "ĠDes": 2869,
      "ĠVitality": 2870,
      "Ġelement": 2871,
      "Ġparty": 2872,
      "Ġclasses": 2873,
      "Ġsounded": 2874,
      "ony": 2875,
      "Ġlo": 2876,
      "ĠMult": 2877,
      "chn": 2878,
      "Ġdev": 2879,
      "Ġactual": 2880,
      "Ġamb": 2881,
      "Ġdesper": 2882,
      "Ġhappen": 2883,
      "Ġharder": 2884,
      "Ġmovement": 2885,
      "Ġfallen": 2886,
      "Ġdestro": 2887,
      "Ġslammed": 2888,
      "Ġmusc": 2889,
      "Ġopportunity": 2890,
      "bility": 2891,
      "Ġ9": 2892,
      "Ġgaze": 2893,
      "Ġconcer": 2894,
      "Ġexcept": 2895,
      "Ġfinished": 2896,
      "Thank": 2897,
      "Ġ25": 2898,
      "Ġalchemy": 2899,
      "Ġclothes": 2900,
      "Ġmental": 2901,
      "Did": 2902,
      "bo": 2903,
      "bered": 2904,
      "Ġcross": 2905,
      "Ġarch": 2906,
      "arsh": 2907,
      "ĠOnly": 2908,
      "Ġdetail": 2909,
      "Ġfrowned": 2910,
      "ĠEssence": 2911,
      "bl": 2912,
      "Ġhord": 2913,
      "Ġgathered": 2914,
      "ounter": 2915,
      "Ġorig": 2916,
      "ative": 2917,
      "Ġflew": 2918,
      "Who": 2919,
      "ku": 2920,
      "eding": 2921,
      "Ġtoday": 2922,
      "illing": 2923,
      "Ġsmaller": 2924,
      "ĠInstead": 2925,
      "Ġrapid": 2926,
      "Now": 2927,
      "ĠQu": 2928,
      "Ġfog": 2929,
      "Ġcoins": 2930,
      "Ġthin": 2931,
      "Ġweight": 2932,
      "ĠMiasma": 2933,
      "Ġenter": 2934,
      "Ġfloating": 2935,
      "Ġcharged": 2936,
      "Ġsurvive": 2937,
      "Ġwindow": 2938,
      "Ġzomb": 2939,
      "ding": 2940,
      "inding": 2941,
      "Ġplat": 2942,
      "Ġways": 2943,
      "Ġkeeping": 2944,
      "Ġimproved": 2945,
      "Ġafraid": 2946,
      "Ex": 2947,
      "Ġforces": 2948,
      "Ġiss": 2949,
      "ĠCor": 2950,
      "ĠEndurance": 2951,
      "lessly": 2952,
      "Ġsounds": 2953,
      "Ġintegr": 2954,
      "luence": 2955,
      "Good": 2956,
      "Ne": 2957,
      "ene": 2958,
      "ros": 2959,
      "Ġspirit": 2960,
      "Ġtrust": 2961,
      "Ġsuper": 2962,
      "ĠLuck": 2963,
      "Ġdesert": 2964,
      "Ġquestions": 2965,
      "Ġlimited": 2966,
      "Ġnatural": 2967,
      "Ġpouch": 2968,
      "Ġshrug": 2969,
      "Ġlee": 2970,
      "Ġdesign": 2971,
      "Ġremained": 2972,
      "Ġtitle": 2973,
      "Ġimpossible": 2974,
      "ĠMultiverse": 2975,
      "por": 2976,
      "nded": 2977,
      "Ġmage": 2978,
      "Ġhaven": 2979,
      "ĠMother": 2980,
      "Ġprocess": 2981,
      "Ġunable": 2982,
      "Ġinclud": 2983,
      "fortun": 2984,
      "aut": 2985,
      "ipping": 2986,
      "ms": 2987,
      "ishing": 2988,
      "Ġpun": 2989,
      "ading": 2990,
      "Ġstuff": 2991,
      "ĠPro": 2992,
      "ĠGabri": 2993,
      "Ġfollow": 2994,
      "Ġfollowing": 2995,
      "Ġespecially": 2996,
      "Ġjumped": 2997,
      "Ġstairs": 2998,
      "lder": 2999,
      "ĠApp": 3000,
      "ope": 3001,
      "Ġchann": 3002,
      "Ġmoments": 3003,
      "Ġplanet": 3004,
      "Ġtravel": 3005,
      "Ġchoice": 3006,
      "Ġplatform": 3007,
      "fting": 3008,
      "hod": 3009,
      "Ġpar": 3010,
      "ĠMore": 3011,
      "Ġherald": 3012,
      "Ġmethod": 3013,
      "Ġlanded": 3014,
      "fortable": 3015,
      "Ġrisk": 3016,
      "Rare": 3017,
      "Ġwin": 3018,
      "Ġpay": 3019,
      "alley": 3020,
      "Ġspoke": 3021,
      "Ġconj": 3022,
      "Ġacid": 3023,
      "Ġbottle": 3024,
      "Ġlaugh": 3025,
      "Ġfailed": 3026,
      "cient": 3027,
      "iny": 3028,
      "inal": 3029,
      "Ġsne": 3030,
      "Ġce": 3031,
      "anked": 3032,
      "Ġstreet": 3033,
      "ĠEy": 3034,
      "anded": 3035,
      "Ġknife": 3036,
      "ĠRis": 3037,
      "Ġanyway": 3038,
      "Ġsuff": 3039,
      "Ġapparently": 3040,
      "Ġextra": 3041,
      "Ġpurp": 3042,
      "Ġsenses": 3043,
      "Ġpiece": 3044,
      "Ġescape": 3045,
      "aven": 3046,
      "looking": 3047,
      "ral": 3048,
      "ym": 3049,
      "Ġball": 3050,
      "Ġcarri": 3051,
      "Ġtool": 3052,
      "Ġmakes": 3053,
      "Ġdim": 3054,
      "Ġliqu": 3055,
      "ĠCal": 3056,
      "Ġputting": 3057,
      "Ġcorpse": 3058,
      "Ġconfir": 3059,
      "Ġmeeting": 3060,
      "Ġconsider": 3061,
      "Ġtrouble": 3062,
      "ature": 3063,
      "Ġcas": 3064,
      "Ġcold": 3065,
      "ision": 3066,
      "Ġnone": 3067,
      "urch": 3068,
      "Ġrob": 3069,
      "Ġguards": 3070,
      "Ġexped": 3071,
      "Ġbeginning": 3072,
      "Every": 3073,
      "Ġsigh": 3074,
      "Ġbarri": 3075,
      "isf": 3076,
      "imes": 3077,
      "osing": 3078,
      "Ġanymore": 3079,
      "ĠGuild": 3080,
      "ĠYour": 3081,
      "Ġboy": 3082,
      "ĠMastery": 3083,
      "Ġid": 3084,
      "Ġtent": 3085,
      "Ġbed": 3086,
      "amed": 3087,
      "unk": 3088,
      "ĠBeth": 3089,
      "Ġvan": 3090,
      "Ġenj": 3091,
      "oline": 3092,
      "Ġshouldn": 3093,
      "Ġletting": 3094,
      "Ġexpedition": 3095,
      "va": 3096,
      "yle": 3097,
      "outed": 3098,
      "Ġearly": 3099,
      "ody": 3100,
      "Ġspeak": 3101,
      "Ġdrink": 3102,
      "aughter": 3103,
      "known": 3104,
      "ĠRisi": 3105,
      "Blood": 3106,
      "Ġ8": 3107,
      "aroline": 3108,
      "Ġpit": 3109,
      "Ġseed": 3110,
      "Ġclaim": 3111,
      "iew": 3112,
      "Ġseems": 3113,
      "ĠShadow": 3114,
      "Ġfalling": 3115,
      "ended": 3116,
      "Ġbelieved": 3117,
      "Ġimagine": 3118,
      "Name": 3119,
      "rel": 3120,
      "Ġmother": 3121,
      "Ġsaying": 3122,
      "Ġvalley": 3123,
      "ĠDe": 3124,
      "Ġdiss": 3125,
      "ING": 3126,
      "hix": 3127,
      "ler": 3128,
      "Ġmur": 3129,
      "ĠInt": 3130,
      "rie": 3131,
      "ume": 3132,
      "ĠCryst": 3133,
      "ĠBateo": 3134,
      "Ġview": 3135,
      "ocated": 3136,
      "Ġsurface": 3137,
      "Ġgolden": 3138,
      "Ġremembered": 3139,
      "Ġsuccess": 3140,
      "Will": 3141,
      "cl": 3142,
      "hip": 3143,
      "iate": 3144,
      "Ġant": 3145,
      "using": 3146,
      "ĠCity": 3147,
      "Ġord": 3148,
      "ĠâĢĺ": 3149,
      "oyed": 3150,
      "Ġafflict": 3151,
      "Ġsolid": 3152,
      "ĠZhix": 3153,
      "Ġfully": 3154,
      "Ġmir": 3155,
      "acy": 3156,
      "Ġexist": 3157,
      "olved": 3158,
      "Ġunl": 3159,
      "Ġmyself": 3160,
      "Ġterr": 3161,
      "ĠAgility": 3162,
      "Ġdestroy": 3163,
      "idence": 3164,
      "Ġstream": 3165,
      "ented": 3166,
      "ĠRank": 3167,
      "Ġheading": 3168,
      "Ġgiants": 3169,
      "attern": 3170,
      "Ġhiding": 3171,
      "Ġsignific": 3172,
      "Ġchallenge": 3173,
      "ees": 3174,
      "Ġwand": 3175,
      "Ġtox": 3176,
      "Ġheat": 3177,
      "Ġlower": 3178,
      "Ġgest": 3179,
      "Ġplaces": 3180,
      "Ġstruct": 3181,
      "Ġdifference": 3182,
      "Ġreminded": 3183,
      "Iron": 3184,
      "tled": 3185,
      "Ġtouch": 3186,
      "Ġbag": 3187,
      "erm": 3188,
      "Ġpol": 3189,
      "Ġstret": 3190,
      "Ġupgrade": 3191,
      "ĠMaybe": 3192,
      "Ġconvers": 3193,
      "ountered": 3194,
      "Ġleaders": 3195,
      "Ġaccess": 3196,
      "Ġapproach": 3197,
      "Ġpalace": 3198,
      "bled": 3199,
      "Ġpattern": 3200,
      "Ġdoors": 3201,
      "ĠTem": 3202,
      "angu": 3203,
      "âĢĶ\"": 3204,
      "Ġvoid": 3205,
      "Ġencountered": 3206,
      "Uncommon": 3207,
      "Ġrolled": 3208,
      "Ġsource": 3209,
      "Ġhonestly": 3210,
      "fortunately": 3211,
      "rid": 3212,
      "Ġbunch": 3213,
      "Ġcat": 3214,
      "Ġcaster": 3215,
      "Ġtot": 3216,
      "omin": 3217,
      "Ġreve": 3218,
      "Ġrose": 3219,
      "Ġjud": 3220,
      "ĠIts": 3221,
      "Ġknows": 3222,
      "ĠStill": 3223,
      "Ġbecoming": 3224,
      "Ġcheck": 3225,
      "Ġgroups": 3226,
      "Ġguessed": 3227,
      "Ġnearby": 3228,
      "Clive": 3229,
      "Ġpieces": 3230,
      "we": 3231,
      "zz": 3232,
      "Ġbase": 3233,
      "Ġrot": 3234,
      "Ġsho": 3235,
      "ordial": 3236,
      "Ġimpact": 3237,
      "Ġparts": 3238,
      "Ġbuildings": 3239,
      "???": 3240,
      "ĠGrimmar": 3241,
      "Ġexploded": 3242,
      "Ġstorage": 3243,
      "Even": 3244,
      "To": 3245,
      "atively": 3246,
      "Ġcoin": 3247,
      "aling": 3248,
      "ales": 3249,
      "alia": 3250,
      "ĠAb": 3251,
      "ometimes": 3252,
      "Ġstaring": 3253,
      "rying": 3254,
      "Ġstatus": 3255,
      "Ġsilence": 3256,
      "Ġsteps": 3257,
      "Ġweek": 3258,
      "Ġprovided": 3259,
      "Ġmuttered": 3260,
      "init": 3261,
      "Ġwid": 3262,
      "Ġlack": 3263,
      "Ġlive": 3264,
      "andom": 3265,
      "aped": 3266,
      "Ġgoal": 3267,
      "ĠKenzie": 3268,
      "Ġeffective": 3269,
      "Ġavail": 3270,
      "Ġprepared": 3271,
      "Ġvillage": 3272,
      "Ġexpression": 3273,
      "Ġvers": 3274,
      "Ġstore": 3275,
      "Ġredu": 3276,
      "oof": 3277,
      "ĠTit": 3278,
      "Ġsold": 3279,
      "ĠEx": 3280,
      "Ġbackward": 3281,
      "Ġwilling": 3282,
      "Ġsplit": 3283,
      "Ġgrabbed": 3284,
      "Ġemerged": 3285,
      "onse": 3286,
      "Ġpin": 3287,
      "Ġwaste": 3288,
      "iment": 3289,
      "alk": 3290,
      "Ġsave": 3291,
      "ĠSeed": 3292,
      "ĠAc": 3293,
      "ĠMind": 3294,
      "Ġart": 3295,
      "though": 3296,
      "Ġagreed": 3297,
      "ellus": 3298,
      "Ġcontribut": 3299,
      "Ġmultiple": 3300,
      "got": 3301,
      "iated": 3302,
      "Ġfair": 3303,
      "Ġpop": 3304,
      "agon": 3305,
      "anding": 3306,
      "Ġexplos": 3307,
      "Ġattempt": 3308,
      "Ġreleased": 3309,
      "Ġself": 3310,
      "Ġbarrier": 3311,
      "Sophie": 3312,
      "use": 3313,
      "Âł": 3314,
      "Ġing": 3315,
      "Ġaim": 3316,
      "asight": 3317,
      "Ġthirty": 3318,
      "Ġgear": 3319,
      "eling": 3320,
      "ute": 3321,
      "Ġnon": 3322,
      "Ġnor": 3323,
      "Ġentr": 3324,
      "Ġregener": 3325,
      "Ġhunt": 3326,
      "aldis": 3327,
      "Ġproperly": 3328,
      "Ġpriv": 3329,
      "ĠBloodline": 3330,
      "HA": 3331,
      "kk": 3332,
      "miss": 3333,
      "hel": 3334,
      "Ġfix": 3335,
      "Ġdrew": 3336,
      "ster": 3337,
      "Ġreaching": 3338,
      "ĠAlea": 3339,
      "Ġchair": 3340,
      "ressed": 3341,
      "ooth": 3342,
      "ucked": 3343,
      "Ġhesitation": 3344,
      "Ġpirates": 3345,
      "hot": 3346,
      "Ġfaint": 3347,
      "Ġcalm": 3348,
      "Ġspat": 3349,
      "ĠVellus": 3350,
      "Ġoffered": 3351,
      "Ġattacked": 3352,
      "Ġtechn": 3353,
      "ivid": 3354,
      "Ġresistance": 3355,
      "ĠWillpower": 3356,
      "Ġlying": 3357,
      "Ġpul": 3358,
      "Ġreward": 3359,
      "Ġshouted": 3360,
      "Ġresour": 3361,
      "Ġmissing": 3362,
      "Finally": 3363,
      "Ġoption": 3364,
      "Ġbone": 3365,
      "onn": 3366,
      "Ġma": 3367,
      "Ġnumb": 3368,
      "verage": 3369,
      "ushing": 3370,
      "ĠCasper": 3371,
      "ĠBesides": 3372,
      "ĠRem": 3373,
      "Ġscreen": 3374,
      "Ġbuilt": 3375,
      "Ġassess": 3376,
      "Ġ20": 3377,
      "ĠWho": 3378,
      "Ġboost": 3379,
      "Ġcrowd": 3380,
      "initely": 3381,
      "Be": 3382,
      "und": 3383,
      "Ġmort": 3384,
      "Ġdelt": 3385,
      "Ġpure": 3386,
      "Ġpool": 3387,
      "Ġgut": 3388,
      "Ġrange": 3389,
      "Ġrandom": 3390,
      "oose": 3391,
      "Ġwhis": 3392,
      "Ġallocated": 3393,
      "ĠCaroline": 3394,
      "Ġsug": 3395,
      "Ġcompan": 3396,
      "ruction": 3397,
      "Ġeasier": 3398,
      "Ġmember": 3399,
      "ĠPoison": 3400,
      "Sp": 3401,
      "Spe": 3402,
      "dent": 3403,
      "ration": 3404,
      "Ġtired": 3405,
      "otic": 3406,
      "Ġspi": 3407,
      "Ġworried": 3408,
      "Ġblow": 3409,
      "Ġstruck": 3410,
      "Ġburned": 3411,
      "ĠYet": 3412,
      "Ġmonkeys": 3413,
      "Ġwolves": 3414,
      "iers": 3415,
      "Ġhot": 3416,
      "ĠJo": 3417,
      "Ġsear": 3418,
      "ĠCall": 3419,
      "Ġlooks": 3420,
      "ocking": 3421,
      "Ġcrack": 3422,
      "Ġleading": 3423,
      "Ġcraft": 3424,
      "Ġgrand": 3425,
      "Ġlocal": 3426,
      "Ġapproached": 3427,
      "Ġawakened": 3428,
      "Ġtyp": 3429,
      "Ġcenter": 3430,
      "alyze": 3431,
      "Ġliquid": 3432,
      "aves": 3433,
      "Ġtight": 3434,
      "isons": 3435,
      "Ġeight": 3436,
      "Ġdozen": 3437,
      "ode": 3438,
      "Ġswung": 3439,
      "Ġbloody": 3440,
      "Ġformed": 3441,
      "efully": 3442,
      "000": 3443,
      "Ġthrown": 3444,
      "Ġsummoned": 3445,
      "Ġmaterials": 3446,
      "oying": 3447,
      "ring": 3448,
      "son": 3449,
      "onah": 3450,
      "Ġrushed": 3451,
      "Ġallow": 3452,
      "ĠTutorial": 3453,
      "Ġmanage": 3454,
      "Ġcomes": 3455,
      "Ġtrain": 3456,
      "ĠOld": 3457,
      "Ġcontained": 3458,
      "Ġroad": 3459,
      "Ġincred": 3460,
      "Ġreality": 3461,
      "Ġemb": 3462,
      "Ġdistr": 3463,
      "Ġstayed": 3464,
      "Ġrespect": 3465,
      "Ġignored": 3466,
      "Ġscreamed": 3467,
      "Ġpressure": 3468,
      "Ġdelta": 3469,
      "Some": 3470,
      "ari": 3471,
      "Ġpair": 3472,
      "Ġpoured": 3473,
      "Ġstate": 3474,
      "tering": 3475,
      "usted": 3476,
      "osen": 3477,
      "Ġusual": 3478,
      "Ġsnapped": 3479,
      "Ġmeaning": 3480,
      "Ġresponse": 3481,
      "Ġabsorbed": 3482,
      "Ġfingers": 3483,
      "Humphrey": 3484,
      "Ġson": 3485,
      "ats": 3486,
      "arily": 3487,
      "Ġgreet": 3488,
      "owered": 3489,
      "ries": 3490,
      "ulated": 3491,
      "âĢ¦âĢĿ": 3492,
      "ibility": 3493,
      "Ġlimit": 3494,
      "Ġbroke": 3495,
      "Ġsquare": 3496,
      "Ġtitles": 3497,
      "Ġnaturally": 3498,
      "ĠPrimordial": 3499,
      "Ġchecked": 3500,
      "Ġbol": 3501,
      "Ġecho": 3502,
      "Ġaside": 3503,
      "Ġrul": 3504,
      "elle": 3505,
      "Ġgrim": 3506,
      "Ġpleas": 3507,
      "Ġpotential": 3508,
      "Ġtouched": 3509,
      "ĠMercer": 3510,
      "Human": 3511,
      "ebe": 3512,
      "oon": 3513,
      "Ġtast": 3514,
      "Ġwatch": 3515,
      "Ġoptions": 3516,
      "Ġbird": 3517,
      "lla": 3518,
      "ories": 3519,
      "stance": 3520,
      "Ġbeaut": 3521,
      "Ġrarity": 3522,
      "ayer": 3523,
      "rodu": 3524,
      "Ġproject": 3525,
      "rupt": 3526,
      "Ġsnake": 3527,
      "Ġcorner": 3528,
      "armed": 3529,
      "Ġcarefully": 3530,
      "Ġwatching": 3531,
      "Ġtelepor": 3532,
      "Ġtower": 3533,
      "zed": 3534,
      "Ġoper": 3535,
      "Ġboss": 3536,
      "Ġpred": 3537,
      "Ġinner": 3538,
      "Ġwearing": 3539,
      "ĠSomething": 3540,
      "rible": 3541,
      "iful": 3542,
      "Ġskimm": 3543,
      "Ġglowing": 3544,
      "Ġwaves": 3545,
      "Ġserv": 3546,
      "chemist": 3547,
      "ĠOrder": 3548,
      "azing": 3549,
      "Ġcapt": 3550,
      "Where": 3551,
      "att": 3552,
      "etr": 3553,
      "Ġlifted": 3554,
      "iff": 3555,
      "Ġallowing": 3556,
      "Ġplenty": 3557,
      "rentice": 3558,
      "ĠEmily": 3559,
      "ĠReaper": 3560,
      "ĠShade": 3561,
      "Ġcollap": 3562,
      "Ġpractice": 3563,
      "Ġcultivators": 3564,
      "While": 3565,
      "Ġobviously": 3566,
      "Ġmushrooms": 3567,
      "Ġmorning": 3568,
      "Let": 3569,
      "Magda": 3570,
      "TER": 3571,
      "Ġflying": 3572,
      "asion": 3573,
      "Ġinn": 3574,
      "Ġgame": 3575,
      "Ġshif": 3576,
      "ĠNone": 3577,
      "Ġscout": 3578,
      "anged": 3579,
      "Ġfarm": 3580,
      "Ġhappening": 3581,
      "Ġsurprising": 3582,
      "ĠAny": 3583,
      "Ġinterrupted": 3584,
      "Ġunderstood": 3585,
      "owershot": 3586,
      "Ġtenku": 3587,
      "ĠOnce": 3588,
      "hoebe": 3589,
      "kay": 3590,
      "Ġsad": 3591,
      "Ġbother": 3592,
      "Ġfuck": 3593,
      "Ġmer": 3594,
      "elcome": 3595,
      "Ġmere": 3596,
      "ĠValdis": 3597,
      "Ġbuy": 3598,
      "umbling": 3599,
      "rankers": 3600,
      "Ġcertainly": 3601,
      "Ġbusiness": 3602,
      "Ġsurroundings": 3603,
      "Ġbasic": 3604,
      "Ġdescription": 3605,
      "Ġest": 3606,
      "Ġcatch": 3607,
      "alled": 3608,
      "Ġshoot": 3609,
      "Ġsend": 3610,
      "ĠBl": 3611,
      "Ġunless": 3612,
      "ĠThose": 3613,
      "udd": 3614,
      "Ġsecret": 3615,
      "Ġcreating": 3616,
      "Ġtowns": 3617,
      "Ġhoping": 3618,
      "Ġregard": 3619,
      "Ġbringing": 3620,
      "Ġsurvivors": 3621,
      "now": 3622,
      "icing": 3623,
      "iring": 3624,
      "Ġfort": 3625,
      "Ġshimm": 3626,
      "Ġmanip": 3627,
      "ĠGreat": 3628,
      "Ġprison": 3629,
      "Ġgrown": 3630,
      "ample": 3631,
      "annah": 3632,
      "Ġmainly": 3633,
      "Ġadvantage": 3634,
      "Ġbottom": 3635,
      "Ġconversation": 3636,
      "Can": 3637,
      "Per": 3638,
      "Ġgen": 3639,
      "illy": 3640,
      "Ġforth": 3641,
      "ĠSil": 3642,
      "Ġshowing": 3643,
      "uss": 3644,
      "Ġconv": 3645,
      "Ġcondition": 3646,
      "gend": 3647,
      "ĠBert": 3648,
      "Ġchurch": 3649,
      "Ġaddition": 3650,
      "ĠManasight": 3651,
      "Ġtelling": 3652,
      "Ġpulling": 3653,
      "Ġsuspic": 3654,
      "Ġmentioned": 3655,
      "Ġavailable": 3656,
      "iving": 3657,
      "ph": 3658,
      "Ġcool": 3659,
      "lect": 3660,
      "Ġupgraded": 3661,
      "Ġexample": 3662,
      "ounds": 3663,
      "Ġflashed": 3664,
      "Ġgrass": 3665,
      "Ġpoisons": 3666,
      "Ġminor": 3667,
      "Ġseries": 3668,
      "Ġevolution": 3669,
      "Ġfinger": 3670,
      "Ġimpressive": 3671,
      "Ġbranch": 3672,
      "ompanion": 3673,
      "Ġcarried": 3674,
      "pered": 3675,
      "Ġsorry": 3676,
      "Ġfit": 3677,
      "Ġrocks": 3678,
      "pper": 3679,
      "Ġchose": 3680,
      "Ġblank": 3681,
      "Ġblock": 3682,
      "amprey": 3683,
      "Ġwaited": 3684,
      "Ġhealer": 3685,
      "ficult": 3686,
      "pses": 3687,
      "Ġrequired": 3688,
      "Ġattribute": 3689,
      "Ġhorde": 3690,
      "Ġentrance": 3691,
      "Ġsal": 3692,
      "Ġfool": 3693,
      "Ġshaking": 3694,
      "Ġsending": 3695,
      "ĠCass": 3696,
      "Ġvast": 3697,
      "Ġoffic": 3698,
      "umped": 3699,
      "ĠWhich": 3700,
      "Ġdefensive": 3701,
      "Ġactivated": 3702,
      "Ġlucky": 3703,
      "Ġmillion": 3704,
      "Ġtotal": 3705,
      "%.": 3706,
      "Maybe": 3707,
      "lings": 3708,
      "sc": 3709,
      "enced": 3710,
      "Ġlake": 3711,
      "Ġlate": 3712,
      "eled": 3713,
      "Ġbeat": 3714,
      "aging": 3715,
      "Ġconfus": 3716,
      "Ġbless": 3717,
      "Ġgets": 3718,
      "Ġsmoke": 3719,
      "anging": 3720,
      "Ġtend": 3721,
      "Ġtrial": 3722,
      "Ġassumed": 3723,
      "Ġdifficult": 3724,
      "Ġintern": 3725,
      "ĠRec": 3726,
      "Ġwooden": 3727,
      "Ġconsidering": 3728,
      "Ġspecific": 3729,
      "Ġreceived": 3730,
      "Ġrapidly": 3731,
      "Ġceiling": 3732,
      "dentify": 3733,
      "Ġstorm": 3734,
      "ĠIron": 3735,
      "Ġexha": 3736,
      "Ġorgan": 3737,
      "ability": 3738,
      "Ġ15": 3739,
      "Ġrelief": 3740,
      "Ġconsumed": 3741,
      "Ġplanned": 3742,
      "Ġcraw": 3743,
      "Ġweakness": 3744,
      "Ġvalu": 3745,
      "Ġfunction": 3746,
      "Ġnotifications": 3747,
      "Ġpenetr": 3748,
      "Ġpurpose": 3749,
      "Gr": 3750,
      "Ġmine": 3751,
      "Ġstumbled": 3752,
      "entially": 3753,
      "urrent": 3754,
      "Ġripped": 3755,
      "ĠTier": 3756,
      "Ġcha": 3757,
      "ĠPowershot": 3758,
      "ouring": 3759,
      "Ġplants": 3760,
      "Ġheaded": 3761,
      "Ġexplain": 3762,
      "Ġrelax": 3763,
      "Ġteams": 3764,
      "Ġwomen": 3765,
      "Ġconstruct": 3766,
      "Ġtransform": 3767,
      "Ġwondered": 3768,
      "Ġteleport": 3769,
      "Ġnotification": 3770,
      "rifying": 3771,
      "Ġissue": 3772,
      "Ġidi": 3773,
      "off": 3774,
      "oving": 3775,
      "Ġwarn": 3776,
      "itable": 3777,
      "Ġfif": 3778,
      "Ġfist": 3779,
      "ulted": 3780,
      "ĠDid": 3781,
      "lands": 3782,
      "Ġcorpses": 3783,
      "Ġgodd": 3784,
      "Ġsatisf": 3785,
      "Ġabsol": 3786,
      "Ġincreasing": 3787,
      "Ġdrop": 3788,
      "Ġdeterm": 3789,
      "Ġbalance": 3790,
      "IT": 3791,
      "iant": 3792,
      "pting": 3793,
      "Ġmad": 3794,
      "ĠThese": 3795,
      "agged": 3796,
      "ĠHealth": 3797,
      "Ġloose": 3798,
      "Ġtrick": 3799,
      "Ġentering": 3800,
      "bert": 3801,
      "Ġcorrect": 3802,
      "Ġcrazy": 3803,
      "ĠNokk": 3804,
      "Ġwonder": 3805,
      "Ġjoined": 3806,
      "!âĢĻ": 3807,
      "tim": 3808,
      "Ġwet": 3809,
      "Ġboot": 3810,
      "atic": 3811,
      "Ġlose": 3812,
      "ancing": 3813,
      "Ġpace": 3814,
      "Ġpale": 3815,
      "ority": 3816,
      "Ġstaff": 3817,
      "Ġrain": 3818,
      "redient": 3819,
      "ĠJonah": 3820,
      "usk": 3821,
      "ĠTe": 3822,
      "velop": 3823,
      "Ġotherwise": 3824,
      "Ġscrat": 3825,
      "Ġseemingly": 3826,
      "Ġshoulders": 3827,
      "udden": 3828,
      "Ġtrap": 3829,
      "Ġminute": 3830,
      "ucian": 3831,
      "Ġpriest": 3832,
      "Ġchildren": 3833,
      "Ġmeditation": 3834,
      "ĠArella": 3835,
      "Ġfresh": 3836,
      "Ġingredient": 3837,
      "Wait": 3838,
      "bling": 3839,
      "Ġmid": 3840,
      "ested": 3841,
      "Ġstud": 3842,
      "Ġfruit": 3843,
      "Ġtrials": 3844,
      "cessary": 3845,
      "Ġlimbs": 3846,
      "Ġindivid": 3847,
      "Ġdaggers": 3848,
      "Ġdoubted": 3849,
      "Ġbriefly": 3850,
      "Ġpossessed": 3851,
      "DING": 3852,
      "ĠBy": 3853,
      "ĠEl": 3854,
      "Ġprey": 3855,
      "licted": 3856,
      "Ġutter": 3857,
      "ĠApprentice": 3858,
      "*âĢĻ": 3859,
      "CHA": 3860,
      "PTER": 3861,
      "gu": 3862,
      "ital": 3863,
      "itch": 3864,
      "Ġdome": 3865,
      "Ġpier": 3866,
      "Ġgift": 3867,
      "Ġrepe": 3868,
      "Ġalthough": 3869,
      "Ġconco": 3870,
      "Ġclaws": 3871,
      "Ġchosen": 3872,
      "Ġenv": 3873,
      "Ġtrack": 3874,
      "Ġspeaking": 3875,
      "Ġarmour": 3876,
      "Ġglow": 3877,
      "Ġcutting": 3878,
      "uddenly": 3879,
      "CHAPTER": 3880,
      "iency": 3881,
      "ped": 3882,
      "Ġsy": 3883,
      "Ġsides": 3884,
      "Ġgate": 3885,
      "icient": 3886,
      "ĠSm": 3887,
      "Ġlives": 3888,
      "unted": 3889,
      "ĠWor": 3890,
      "ĠPhoebe": 3891,
      "Ġbrain": 3892,
      "Ġhunting": 3893,
      "Ġinscri": 3894,
      "Ġrespons": 3895,
      "Ġmessage": 3896,
      "Ġattributes": 3897,
      "Ġobser": 3898,
      "ltim": 3899,
      "Ġwish": 3900,
      "isa": 3901,
      "Ġdust": 3902,
      "Ġdare": 3903,
      "Ġpile": 3904,
      "Ġparent": 3905,
      "otions": 3906,
      "Ġring": 3907,
      "amn": 3908,
      "Ġnote": 3909,
      "Ġexit": 3910,
      "Ġfeat": 3911,
      "andra": 3912,
      "Ġyours": 3913,
      "Ġcannot": 3914,
      "izing": 3915,
      "ĠStamina": 3916,
      "Ġcareful": 3917,
      "Ġfigured": 3918,
      "Ġcausing": 3919,
      "ĠArcher": 3920,
      "Ġbusy": 3921,
      "Ġunsure": 3922,
      "Ġsin": 3923,
      "Ġwore": 3924,
      "Ġfate": 3925,
      "Ġdig": 3926,
      "eless": 3927,
      "Ġrewards": 3928,
      "ury": 3929,
      "Ġancient": 3930,
      "iles": 3931,
      "Ġsea": 3932,
      "ĠPe": 3933,
      "Ġswall": 3934,
      "ĠThalia": 3935,
      "Ġgrasp": 3936,
      "ĠClass": 3937,
      "Ġendless": 3938,
      "Ġhundreds": 3939,
      "Ġmelee": 3940,
      "Ġgathering": 3941,
      "Ġbenefits": 3942,
      "ĠCrystals": 3943,
      "fall": 3944,
      "gg": 3945,
      "par": 3946,
      "sl": 3947,
      "Ġfo": 3948,
      "Ġfav": 3949,
      "Ġmaster": 3950,
      "Ġears": 3951,
      "Ġnarrow": 3952,
      "Ġwealth": 3953,
      "Ġanger": 3954,
      "Ġconcent": 3955,
      "Ġdeck": 3956,
      "Ġorb": 3957,
      "Ġblades": 3958,
      "ipment": 3959,
      "Ġprev": 3960,
      "Ġprefer": 3961,
      "ization": 3962,
      "Ġperform": 3963,
      "Ġopening": 3964,
      "Still": 3965,
      "Ġdrawing": 3966,
      "ĠLuckily": 3967,
      "apping": 3968,
      "sp": 3969,
      "ton": 3970,
      "inent": 3971,
      "ety": 3972,
      "etting": 3973,
      "Ġchoose": 3974,
      "aping": 3975,
      "Ġprop": 3976,
      "ĠLamprey": 3977,
      "Ġoffer": 3978,
      "Ġswift": 3979,
      "Ġfinish": 3980,
      "Ġaccom": 3981,
      "Ġdirections": 3982,
      "Ġmissed": 3983,
      "Ġspells": 3984,
      "Ġsurrounded": 3985,
      "Ġrats": 3986,
      "Ġquietly": 3987,
      "Ġzombies": 3988,
      "Ġrobes": 3989,
      "ĠRecords": 3990,
      "Int": 3991,
      "bt": 3992,
      "ghest": 3993,
      "oly": 3994,
      "inary": 3995,
      "Ġbul": 3996,
      "Ġmotion": 3997,
      "omach": 3998,
      "Ġeating": 3999,
      "Ġnerv": 4000,
      "ĠHannah": 4001,
      "uries": 4002,
      "Ġrush": 4003,
      "Ġsaf": 4004,
      "ulations": 4005,
      "rand": 4006,
      "Ġcomfortable": 4007,
      "Ġsmooth": 4008,
      "Ġsupport": 4009,
      "Ġvalue": 4010,
      "Ġtempor": 4011,
      "Ġgrip": 4012,
      "ĠCallie": 4013,
      "Ġtypes": 4014,
      "kin": 4015,
      "sized": 4016,
      "inked": 4017,
      "Ġsick": 4018,
      "Ġbull": 4019,
      "itude": 4020,
      "asing": 4021,
      "Ġmis": 4022,
      "Ġstomach": 4023,
      "Ġrub": 4024,
      "ĠRace": 4025,
      "Ġneeds": 4026,
      "Ġrelatively": 4027,
      "Ġbigger": 4028,
      "Ġdefinitely": 4029,
      "Ġconstant": 4030,
      "Ġcolour": 4031,
      "Ġpresent": 4032,
      "Ġdetails": 4033,
      "William": 4034,
      "Ġexplosion": 4035,
      "Ġresources": 4036,
      "From": 4037,
      "powered": 4038,
      "ture": 4039,
      "ties": 4040,
      "Ġmatch": 4041,
      "Ġdream": 4042,
      "aning": 4043,
      "Ġstick": 4044,
      "ĠIdentify": 4045,
      "ceed": 4046,
      "Ġflat": 4047,
      "Ġstrongest": 4048,
      "ĠKe": 4049,
      "Ġpurple": 4050,
      "ology": 4051,
      "Ġtreasure": 4052,
      "Ġbeautiful": 4053,
      "More": 4054,
      "Ob": 4055,
      "field": 4056,
      "era": 4057,
      "Ġmod": 4058,
      "iram": 4059,
      "Ġround": 4060,
      "Ġrising": 4061,
      "ĠSl": 4062,
      "Ġshut": 4063,
      "Ġflood": 4064,
      "izz": 4065,
      "Ġaction": 4066,
      "beast": 4067,
      "Ġretreat": 4068,
      "Ġboar": 4069,
      "Ġrespond": 4070,
      "Ġoppos": 4071,
      "white": 4072,
      "ĠWisdom": 4073,
      "Ġmuscles": 4074,
      "Ġleeches": 4075,
      "Ġspikes": 4076,
      "Ġvaluable": 4077,
      "Ah": 4078,
      "NT": 4079,
      "bat": 4080,
      "cr": 4081,
      "ta": 4082,
      "val": 4083,
      "yd": 4084,
      "inate": 4085,
      "err": 4086,
      "Ġcoo": 4087,
      "Ġtoss": 4088,
      "Ġlines": 4089,
      "Ġhamm": 4090,
      "anting": 4091,
      "Ġintrodu": 4092,
      "Ġtwice": 4093,
      "Ġhanded": 4094,
      "Ġpeak": 4095,
      "ĠMany": 4096,
      "jective": 4097,
      "anna": 4098,
      "Ġaffinity": 4099,
      "Ġeyeb": 4100,
      "ĠIsland": 4101,
      "Ġmaj": 4102,
      "Ġnumbers": 4103,
      "Ġparents": 4104,
      "yl": 4105,
      "Ġlove": 4106,
      "cell": 4107,
      "cepted": 4108,
      "Ġfro": 4109,
      "Ġlived": 4110,
      "Ġshock": 4111,
      "Ġneither": 4112,
      "ĠWas": 4113,
      "Ġvial": 4114,
      "Ġknees": 4115,
      "Ġflow": 4116,
      "play": 4117,
      "Ġadd": 4118,
      "Ġdisp": 4119,
      "Ġactive": 4120,
      "Ġbrown": 4121,
      "Ġhung": 4122,
      "Ġdiscovered": 4123,
      "ucking": 4124,
      "Ġyeah": 4125,
      "Ġevolved": 4126,
      "Ġtunnels": 4127,
      "Ġequipment": 4128,
      "Ġdodge": 4129,
      "Ar": 4130,
      "run": 4131,
      "xes": 4132,
      "Ġauth": 4133,
      "Ġsometimes": 4134,
      "Ġmed": 4135,
      "lease": 4136,
      "Ġbeam": 4137,
      "ĠHuman": 4138,
      "Ġrid": 4139,
      "ĠJul": 4140,
      "ĠFog": 4141,
      "ĠBody": 4142,
      "Ġvib": 4143,
      "ĠEach": 4144,
      "Ġworst": 4145,
      "seless": 4146,
      "ĠDis": 4147,
      "ĠDen": 4148,
      "rows": 4149,
      "Ġpassing": 4150,
      "Ġgreater": 4151,
      "Ġsilent": 4152,
      "Ġgrowth": 4153,
      "Ġterrible": 4154,
      "Ġbarghest": 4155,
      "Ġreading": 4156,
      "Ġcomplicated": 4157,
      "Ġportal": 4158,
      "Ġconcern": 4159,
      "Something": 4160,
      "post": 4161,
      "uals": 4162,
      "Ġwra": 4163,
      "Ġfired": 4164,
      "Ġlangu": 4165,
      "omed": 4166,
      "Ġgard": 4167,
      "Ġbell": 4168,
      "urm": 4169,
      "agg": 4170,
      "Ġshattered": 4171,
      "rike": 4172,
      "Ġsell": 4173,
      "Ġchuck": 4174,
      "Ġblind": 4175,
      "oles": 4176,
      "Ġsmashed": 4177,
      "Ġstars": 4178,
      "Ġkinds": 4179,
      "Ġhumanoid": 4180,
      "Ġpersonal": 4181,
      "Ġmemory": 4182,
      "Ġconfident": 4183,
      "Ġsensation": 4184,
      "Ġheavily": 4185,
      "Ġofficial": 4186,
      "ĠFoglands": 4187,
      "],": 4188,
      "atched": 4189,
      "atte": 4190,
      "isible": 4191,
      "arr": 4192,
      "lyn": 4193,
      "vere": 4194,
      "urity": 4195,
      "ĠSince": 4196,
      "Ġchim": 4197,
      "Ġthank": 4198,
      "Ġextended": 4199,
      "Ġhitting": 4200,
      "Ġinterested": 4201,
      "Ġgenerally": 4202,
      "ĠSoon": 4203,
      "Another": 4204,
      "Ġpresence": 4205,
      "Ġfractal": 4206,
      "Chop": 4207,
      "Ġoriginal": 4208,
      "Ġcontribution": 4209,
      "Ġopposite": 4210,
      "Ability": 4211,
      "ipp": 4212,
      "rees": 4213,
      "ern": 4214,
      "Ġdiv": 4215,
      "Ġpaper": 4216,
      "Ġrad": 4217,
      "ĠSu": 4218,
      "Ġleaned": 4219,
      "Ġherbs": 4220,
      "ĠBoth": 4221,
      "Ġvol": 4222,
      "igious": 4223,
      "Ġareas": 4224,
      "ĠNym": 4225,
      "ĠLucian": 4226,
      "Ġprec": 4227,
      "Ġteen": 4228,
      "ĠSte": 4229,
      "Ġessentially": 4230,
      "Ġformer": 4231,
      "ĠWhip": 4232,
      "Ġhighly": 4233,
      "Ġdirector": 4234,
      "Ġbreaking": 4235,
      "Ġcolor": 4236,
      "Quest": 4237,
      "Ġpillar": 4238,
      "ĠBertram": 4239,
      "Em": 4240,
      "ND": 4241,
      "iven": 4242,
      "kill": 4243,
      "uin": 4244,
      "uction": 4245,
      "Ġtreat": 4246,
      "ites": 4247,
      "Ġdying": 4248,
      "Ġhearing": 4249,
      "uration": 4250,
      "quire": 4251,
      "uming": 4252,
      "Ġvi": 4253,
      "Ġmeas": 4254,
      "Ġcontact": 4255,
      "Ġhealed": 4256,
      "Ġclosest": 4257,
      "Ġfloated": 4258,
      "Ġauras": 4259,
      "Ġcaused": 4260,
      "Ġexcited": 4261,
      "Ġflex": 4262,
      "Ġmountains": 4263,
      "Alright": 4264,
      "Ġabsorb": 4265,
      "Ġyellow": 4266,
      "Ġvanished": 4267,
      "ĠIntelligence": 4268,
      "Ġsoldiers": 4269,
      "Current": 4270,
      "ience": 4271,
      "vim": 4272,
      "Ġharm": 4273,
      "Ġmot": 4274,
      "Ġmap": 4275,
      "organ": 4276,
      "Ġbeings": 4277,
      "Ġforgot": 4278,
      "ĠCompanion": 4279,
      "ĠDav": 4280,
      "ĠOther": 4281,
      "ĠGu": 4282,
      "Ġnowhere": 4283,
      "Ġroar": 4284,
      "Ġdesk": 4285,
      "Ġrelated": 4286,
      "ĠWithin": 4287,
      "Ġsurvived": 4288,
      "Ġapproaching": 4289,
      "ĠAlchemist": 4290,
      "Ġillusion": 4291,
      "Ġanimals": 4292,
      "awn": 4293,
      "mer": 4294,
      "Ġbes": 4295,
      "itious": 4296,
      "atche": 4297,
      "asic": 4298,
      "Ġcage": 4299,
      "Ġdra": 4300,
      "Ġlock": 4301,
      "Ġpicking": 4302,
      "Ġgn": 4303,
      "Ġstory": 4304,
      "ldown": 4305,
      "terity": 4306,
      "Ġshall": 4307,
      "Ġshared": 4308,
      "ĠFirst": 4309,
      "Ġclaw": 4310,
      "Ġblocked": 4311,
      "Ġnose": 4312,
      "ipe": 4313,
      "Ġsurge": 4314,
      "Ġspend": 4315,
      "Ġwaved": 4316,
      "Ġcurious": 4317,
      "Ġunderstanding": 4318,
      "Ġsweat": 4319,
      "Ġthousands": 4320,
      "Level": 4321,
      "ĠGabrielle": 4322,
      "Ġprivate": 4323,
      "Act": 4324,
      "Or": 4325,
      "Ġic": 4326,
      "rec": 4327,
      "Ġbought": 4328,
      "Ġpalm": 4329,
      "Ġstage": 4330,
      "sequ": 4331,
      "Ġoutward": 4332,
      "ĠCan": 4333,
      "Ġworks": 4334,
      "Ġlargest": 4335,
      "Ġinflicted": 4336,
      "Ġinvest": 4337,
      "ending": 4338,
      "Ġlocked": 4339,
      "azed": 4340,
      "Ġcavern": 4341,
      "Ġflee": 4342,
      "Does": 4343,
      "Ġprotection": 4344,
      "Class": 4345,
      "Ġerup": 4346,
      "Ġveins": 4347,
      "Ġconnection": 4348,
      "Mana": 4349,
      "ĠCassandra": 4350,
      "rarity": 4351,
      "ises": 4352,
      "Ġmoss": 4353,
      "Ġlog": 4354,
      "Ġpack": 4355,
      "level": 4356,
      "icate": 4357,
      "ĠJan": 4358,
      "ĠFinally": 4359,
      "Ġvict": 4360,
      "apt": 4361,
      "Ġtracking": 4362,
      "Ġactions": 4363,
      "Ġdecent": 4364,
      "ĠWithout": 4365,
      "Ġadvance": 4366,
      "Ġarrays": 4367,
      "Ġprovide": 4368,
      "Ġplease": 4369,
      "exterity": 4370,
      "ĠCalrin": 4371,
      "atchet": 4372,
      "Harn": 4373,
      "IL": 4374,
      "Ġtiny": 4375,
      "Ġfaded": 4376,
      "Ġcab": 4377,
      "Ġnamed": 4378,
      "Ġstyle": 4379,
      "Ġate": 4380,
      "Ġclan": 4381,
      "anda": 4382,
      "Ġblur": 4383,
      "Ġflared": 4384,
      "abor": 4385,
      "attering": 4386,
      "Ġmovements": 4387,
      "Ġpathways": 4388,
      "Ġweaker": 4389,
      "Ġnormally": 4390,
      "Ġindeed": 4391,
      "Ġrecognized": 4392,
      "Ġyelled": 4393,
      "Ġincluding": 4394,
      "onna": 4395,
      "gendary": 4396,
      "Objective": 4397,
      "Ġvibr": 4398,
      "de": 4399,
      "ught": 4400,
      "Ġske": 4401,
      "itive": 4402,
      "arge": 4403,
      "Ġpub": 4404,
      "orrow": 4405,
      "adder": 4406,
      "utely": 4407,
      "iranda": 4408,
      "Ġspark": 4409,
      "ĠDu": 4410,
      "Ġcleared": 4411,
      "Ġattacking": 4412,
      "Ġpoor": 4413,
      "Ġedges": 4414,
      "Ġinsane": 4415,
      "Ġchanges": 4416,
      "ĠBefore": 4417,
      "Ġtorn": 4418,
      "Ġadmit": 4419,
      "Ġconfirmed": 4420,
      "Race": 4421,
      "ront": 4422,
      "Ġven": 4423,
      "Ġsch": 4424,
      "Ġwoke": 4425,
      "ctions": 4426,
      "ĠAlyn": 4427,
      "Ġshocked": 4428,
      "chant": 4429,
      "ĠCore": 4430,
      "Ġenorm": 4431,
      "ĠNode": 4432,
      "ference": 4433,
      "onscious": 4434,
      "Ġspears": 4435,
      "Ġliter": 4436,
      "Ġcracked": 4437,
      "Soon": 4438,
      "Ġcontinu": 4439,
      "Strength": 4440,
      "Ġalchemist": 4441,
      "Ġcommun": 4442,
      "Ġappearance": 4443,
      "Ġoccup": 4444,
      "Ġeventually": 4445,
      "rosive": 4446,
      "ĠAbby": 4447,
      "Ġconfusion": 4448,
      "house": 4449,
      "Ġfol": 4450,
      "ism": 4451,
      "acle": 4452,
      "Ġasking": 4453,
      "ĠHar": 4454,
      "ĠHiram": 4455,
      "Ġroof": 4456,
      "Ġatop": 4457,
      "Ġleaves": 4458,
      "Ġconcept": 4459,
      "Ġtruth": 4460,
      "Ġplant": 4461,
      "ointing": 4462,
      "Ġthroughout": 4463,
      "Ġnoise": 4464,
      "Ġdisplay": 4465,
      "Ġexpensive": 4466,
      "Ġhelping": 4467,
      "Ġcrim": 4468,
      "Ġ24": 4469,
      "ivers": 4470,
      "Ġimage": 4471,
      "Ġangry": 4472,
      "Ġblasted": 4473,
      "Ġanimal": 4474,
      "ĠEye": 4475,
      "Ġdimension": 4476,
      "Ġteleporter": 4477,
      "atteo": 4478,
      "Ġwake": 4479,
      "oned": 4480,
      "Ġfac": 4481,
      "Ġden": 4482,
      "ĠHarrow": 4483,
      "Ġrage": 4484,
      "chie": 4485,
      "Ġconc": 4486,
      "aby": 4487,
      "Ġgrunted": 4488,
      "chel": 4489,
      "aviness": 4490,
      "Ġaccur": 4491,
      "Ġregular": 4492,
      "Ġfocusing": 4493,
      "Ġsupposed": 4494,
      "ounted": 4495,
      "Ġcollect": 4496,
      "Ġexperienced": 4497,
      "Ġimportantly": 4498,
      "Ġscreaming": 4499,
      "Ġafflictions": 4500,
      "Ġassessment": 4501,
      "Ġutterly": 4502,
      "Ġenormous": 4503,
      "Luck": 4504,
      "Looking": 4505,
      "Tr": 4506,
      "bow": 4507,
      "under": 4508,
      "Ġtact": 4509,
      "Ġfaces": 4510,
      "Ġcop": 4511,
      "Ġmax": 4512,
      "Ġdry": 4513,
      "Ġgle": 4514,
      "Ġgonna": 4515,
      "Ġsaved": 4516,
      "ĠSpe": 4517,
      "Ġshining": 4518,
      "ĠFore": 4519,
      "usting": 4520,
      "Ġdog": 4521,
      "Ġsoc": 4522,
      "ĠPat": 4523,
      "elled": 4524,
      "Ġflame": 4525,
      "Ġscales": 4526,
      "ips": 4527,
      "Ġfights": 4528,
      "Ġelf": 4529,
      "ney": 4530,
      "ĠInc": 4531,
      "Ġreco": 4532,
      "Ġclosing": 4533,
      "Ġdeadly": 4534,
      "Ġoppon": 4535,
      "Ġtargets": 4536,
      "Ġdodged": 4537,
      "ĠConstance": 4538,
      "ĠCorp": 4539,
      "Ġtools": 4540,
      "Ġfifty": 4541,
      "Lore": 4542,
      "Like": 4543,
      "Ġ???": 4544,
      "Ġwis": 4545,
      "Ġwelcome": 4546,
      "Ġbound": 4547,
      "Ġcro": 4548,
      "Ġpu": 4549,
      "Ġpouring": 4550,
      "Ġnet": 4551,
      "Ġya": 4552,
      "Ġkick": 4553,
      "ĠTP": 4554,
      "Ġvag": 4555,
      "Ġwants": 4556,
      "ĠStone": 4557,
      "Ġbub": 4558,
      "Ġdeeper": 4559,
      "Ġcarved": 4560,
      "Atar": 4561,
      "ĠDespite": 4562,
      "Ġshrugged": 4563,
      "Ġdestroyed": 4564,
      "Ġsuggest": 4565,
      "Perhaps": 4566,
      "Ġswallowed": 4567,
      "Her": 4568,
      "Two": 4569,
      "bound": 4570,
      "eag": 4571,
      "min": 4572,
      "Ġwagon": 4573,
      "itory": 4574,
      "sect": 4575,
      "Ġliked": 4576,
      "Ġchain": 4577,
      "Ġtrade": 4578,
      "Hey": 4579,
      "Ġplans": 4580,
      "Ġslain": 4581,
      "Ġscram": 4582,
      "Ġknowing": 4583,
      "Ġswir": 4584,
      "Ġcompet": 4585,
      "Ġbrother": 4586,
      "Ġnewly": 4587,
      "Ġassass": 4588,
      "ranker": 4589,
      "Ġinvisible": 4590,
      "Ġbattlefield": 4591,
      "Ġhighest": 4592,
      "Ġencounter": 4593,
      "Ġtorso": 4594,
      "Ġlaid": 4595,
      "Ġlaun": 4596,
      "ĠTrang": 4597,
      "Ġerupted": 4598,
      "Bl": 4599,
      "MP": 4600,
      "Ogras": 4601,
      "aar": 4602,
      "Ġver": 4603,
      "inic": 4604,
      "Ġbones": 4605,
      "ength": 4606,
      "ication": 4607,
      "ĠHeaviness": 4608,
      "Ġspun": 4609,
      "ĠTra": 4610,
      "ĠBr": 4611,
      "Ġknocked": 4612,
      "Ġeverywhere": 4613,
      "Ġkey": 4614,
      "Ġwanting": 4615,
      "ensity": 4616,
      "Ġquests": 4617,
      "Ġreluct": 4618,
      "Ġplanning": 4619,
      "Ġstopping": 4620,
      "Ġvisible": 4621,
      "Ġcultists": 4622,
      "ĠEverything": 4623,
      "Ġgroaned": 4624,
      "Ġcollapsed": 4625,
      "btep": 4626,
      "cellent": 4627,
      "iance": 4628,
      "well": 4629,
      "Ġbast": 4630,
      "Ġlosing": 4631,
      "ĠHall": 4632,
      "oop": 4633,
      "ooks": 4634,
      "ĠSap": 4635,
      "rous": 4636,
      "ĠWhere": 4637,
      "Ġclou": 4638,
      "ĠElder": 4639,
      "iped": 4640,
      "ables": 4641,
      "Ġcharging": 4642,
      "Ġpurs": 4643,
      "allenge": 4644,
      "Ġannoy": 4645,
      "Ġruined": 4646,
      "leaf": 4647,
      "Ġtreasures": 4648,
      "Ġrules": 4649,
      "Ġidiot": 4650,
      "nment": 4651,
      "Ġoce": 4652,
      "arh": 4653,
      "Ġerect": 4654,
      "imum": 4655,
      "Ġuseless": 4656,
      "irm": 4657,
      "semb": 4658,
      "Ġlie": 4659,
      "roud": 4660,
      "ĠWashing": 4661,
      "ĠTrees": 4662,
      "ĠEND": 4663,
      "ĠDon": 4664,
      "Ġwhose": 4665,
      "Ġunique": 4666,
      "Ġcontroll": 4667,
      "izens": 4668,
      "Ġacqu": 4669,
      "Ġbrac": 4670,
      "Ġgray": 4671,
      "Ġclearing": 4672,
      "ishment": 4673,
      "ĠAnalyze": 4674,
      "ĠAnisa": 4675,
      "Ġislands": 4676,
      "Ġstaying": 4677,
      "Ġcircum": 4678,
      "Ġrepres": 4679,
      "Ġprompt": 4680,
      "Ġincursions": 4681,
      "Which": 4682,
      "Ġstabbed": 4683,
      "Ġdesperate": 4684,
      "Ġreduced": 4685,
      "Ġchaos": 4686,
      "Jacob": 4687,
      "ok": 4688,
      "that": 4689,
      "tling": 4690,
      "zing": 4691,
      "inning": 4692,
      "Ġhive": 4693,
      "Ġband": 4694,
      "Ġborn": 4695,
      "itions": 4696,
      "Ġtore": 4697,
      "Ġpock": 4698,
      "Ġeager": 4699,
      "Ġforcing": 4700,
      "Ġnoted": 4701,
      "asting": 4702,
      "gered": 4703,
      "ouses": 4704,
      "selord": 4705,
      "ateg": 4706,
      "ruit": 4707,
      "Ġbelong": 4708,
      "Ġsetting": 4709,
      "Ġsteady": 4710,
      "Ġsatchel": 4711,
      "Ġbreathing": 4712,
      "Ġinvolved": 4713,
      "Ġcolleag": 4714,
      "Ġsubject": 4715,
      "Ġsensed": 4716,
      "Ġignoring": 4717,
      "Ġcompleted": 4718,
      "ĠSilva": 4719,
      "Ġinternal": 4720,
      "Ġingredients": 4721,
      "Ġsafety": 4722,
      "Ġtossed": 4723,
      "Ġlanguage": 4724,
      "Ġteenager": 4725,
      "ĠCorpselord": 4726,
      "ĠWashington": 4727,
      "Since": 4728,
      "bles": 4729,
      "Ġauction": 4730,
      "Ġachie": 4731,
      "Ġbelt": 4732,
      "Ġmask": 4733,
      "Ġlady": 4734,
      "Ġpants": 4735,
      "adem": 4736,
      "ste": 4737,
      "Ġupper": 4738,
      "Ġshop": 4739,
      "Ġalright": 4740,
      "Ġnecessary": 4741,
      "ulating": 4742,
      "Ġchat": 4743,
      "Ġdeer": 4744,
      "Ġquiver": 4745,
      "Ġshell": 4746,
      "Ġuncom": 4747,
      "Ġtwisted": 4748,
      "Ġcontaining": 4749,
      "Ġaccept": 4750,
      "Ġnews": 4751,
      "Ġemotions": 4752,
      "Ġrestr": 4753,
      "Ġdrained": 4754,
      "Ġregret": 4755,
      "Ġ30": 4756,
      "worth": 4757,
      "Ġproblems": 4758,
      "Ġhorror": 4759,
      "editation": 4760,
      "Ġunconscious": 4761,
      "Ġreplaced": 4762,
      "Ġpolit": 4763,
      "Ġwarning": 4764,
      "Ġboots": 4765,
      "Ġfeatures": 4766,
      "Most": 4767,
      "bit": 4768,
      "kward": 4769,
      "oken": 4770,
      "Ġtil": 4771,
      "Ġtail": 4772,
      "inet": 4773,
      "Ġcounter": 4774,
      "Ġgasp": 4775,
      "stances": 4776,
      "lem": 4777,
      "urd": 4778,
      "ĠFire": 4779,
      "umption": 4780,
      "ĠTen": 4781,
      "ĠTwo": 4782,
      "ĠBig": 4783,
      "Ġclinic": 4784,
      "Ġanywhere": 4785,
      "Ġunh": 4786,
      "Ġskull": 4787,
      "Ġdisg": 4788,
      "Ġheads": 4789,
      "Ġprice": 4790,
      "Ġresist": 4791,
      "ĠStrike": 4792,
      "Ġexposed": 4793,
      "Ġassault": 4794,
      "Ġawkward": 4795,
      "Ġsettled": 4796,
      "Ġserious": 4797,
      "Ġtakes": 4798,
      "Ġdouble": 4799,
      "Ġmarg": 4800,
      "Ġbleeding": 4801,
      "arshall": 4802,
      "avens": 4803,
      "Ġechoed": 4804,
      "Ġtaste": 4805,
      "ĠPeople": 4806,
      "Ġbeside": 4807,
      "pent": 4808,
      "Ġcause": 4809,
      "Ġloss": 4810,
      "Ġfrust": 4811,
      "ament": 4812,
      "umble": 4813,
      "Ġspar": 4814,
      "ĠCle": 4815,
      "ulate": 4816,
      "ĠWell": 4817,
      "Ġsocial": 4818,
      "Ġarc": 4819,
      "ĠPl": 4820,
      "ĠDungeon": 4821,
      "Ġuser": 4822,
      "Ġroot": 4823,
      "Ġdesce": 4824,
      "Ġ13": 4825,
      "Ġ14": 4826,
      "Ġrecording": 4827,
      "Ġsnar": 4828,
      "Ġcontinue": 4829,
      "Ġincreases": 4830,
      "overing": 4831,
      "Ġ50": 4832,
      "mbitious": 4833,
      "Ġcentral": 4834,
      "force": 4835,
      "while": 4836,
      "Ġinstincts": 4837,
      "Ġcomplex": 4838,
      "Ġstretched": 4839,
      "Ġmortal": 4840,
      "Ġviol": 4841,
      "Ġocean": 4842,
      "iod": 4843,
      "Ġsir": 4844,
      "Ġheight": 4845,
      "Ġlength": 4846,
      "Ġpunch": 4847,
      "Ġinh": 4848,
      "Ġgaining": 4849,
      "ĠIsh": 4850,
      "Ġshake": 4851,
      "Ġneg": 4852,
      "Ġintense": 4853,
      "Ġcond": 4854,
      "Ġdepe": 4855,
      "apor": 4856,
      "Ġunf": 4857,
      "Ġoffice": 4858,
      "Ġadj": 4859,
      "Ġroared": 4860,
      "Ġdesire": 4861,
      "Ġdecision": 4862,
      "ĠAnother": 4863,
      "Ġgrowled": 4864,
      "Ġlocation": 4865,
      "Ġcultivation": 4866,
      "Ġclimbed": 4867,
      "Ġgrinned": 4868,
      "Ġoccasion": 4869,
      "Ġconjured": 4870,
      "Ġtoxic": 4871,
      "Ġstructure": 4872,
      "Ġversion": 4873,
      "Ġprisoners": 4874,
      "Ġblessing": 4875,
      "ĠIshiate": 4876,
      "even": 4877,
      "ky": 4878,
      "oved": 4879,
      "rated": 4880,
      "time": 4881,
      "Ġir": 4882,
      "Ġhill": 4883,
      "arre": 4884,
      "Ġph": 4885,
      "ester": 4886,
      "Ġearn": 4887,
      "Ġseven": 4888,
      "Ġflash": 4889,
      "Ġuniverse": 4890,
      "Ġdismiss": 4891,
      "Ġbrid": 4892,
      "Ġunderg": 4893,
      "Ġremain": 4894,
      "Ġlesser": 4895,
      "Ġbadgers": 4896,
      "worlder": 4897,
      "Any": 4898,
      "Ġchoices": 4899,
      "Ġpillars": 4900,
      "Ġbonuses": 4901,
      "Ġmistake": 4902,
      "Ġwolf": 4903,
      "Ġpaused": 4904,
      "Ġmirage": 4905,
      "ĠJoanna": 4906,
      "Ġembarr": 4907,
      "ĠJulia": 4908,
      "Ġwrapped": 4909,
      "Ġclouds": 4910,
      "Ġembarrass": 4911,
      "Vess": 4912,
      "gely": 4913,
      "ranked": 4914,
      "Ġtask": 4915,
      "Ġokay": 4916,
      "isher": 4917,
      "ider": 4918,
      "ĠIbtep": 4919,
      "urv": 4920,
      "Ġrushing": 4921,
      "Ġshown": 4922,
      "Ġspect": 4923,
      "ularly": 4924,
      "ongrat": 4925,
      "oughness": 4926,
      "Ġthanks": 4927,
      "Ġsmiling": 4928,
      "eping": 4929,
      "Ġunw": 4930,
      "Ġleveled": 4931,
      "Ġmonk": 4932,
      "Ġrobe": 4933,
      "Ġaccepted": 4934,
      "Ġ12": 4935,
      "lessing": 4936,
      "Ġrealize": 4937,
      "Ġsettle": 4938,
      "Ġhopefully": 4939,
      "Ġpurch": 4940,
      "Ġdropping": 4941,
      "Ġconstantly": 4942,
      "Ġbowl": 4943,
      "Ġignore": 4944,
      "Ġrequirements": 4945,
      "Ġcovering": 4946,
      "Ġsignificantly": 4947,
      "Ġgestured": 4948,
      "Ġwhispered": 4949,
      "Ag": 4950,
      "By": 4951,
      "oing": 4952,
      "het": 4953,
      "Ġtheory": 4954,
      "Ġwit": 4955,
      "Ġwarned": 4956,
      "erves": 4957,
      "iture": 4958,
      "Ġfan": 4959,
      "orient": 4960,
      "Ġinsect": 4961,
      "Ġgh": 4962,
      "These": 4963,
      "Ġrefused": 4964,
      "Ġrope": 4965,
      "Ġsepar": 4966,
      "ĠFl": 4967,
      "Ġmanner": 4968,
      "olation": 4969,
      "ourney": 4970,
      "Ġunknown": 4971,
      "Ġscattered": 4972,
      "Item": 4973,
      "auld": 4974,
      "ĠThough": 4975,
      "Ġglare": 4976,
      "Ġpercent": 4977,
      "Ġmoon": 4978,
      "Ġ11": 4979,
      "Ġ18": 4980,
      "Ġinstant": 4981,
      "Ġboat": 4982,
      "Ġcarrying": 4983,
      "Ġlearning": 4984,
      "Ġswinging": 4985,
      "Ġplaying": 4986,
      "Ġresults": 4987,
      "Ġdesperately": 4988,
      "Ġsignificant": 4989,
      "Ġincredibly": 4990,
      "Ġrepeated": 4991,
      "Ġenviron": 4992,
      "ĠWorld": 4993,
      "Ġsociety": 4994,
      "Sorry": 4995,
      "whel": 4996,
      "ype": 4997,
      "Ġsac": 4998,
      "Ġbould": 4999,
      "Ġcal": 5000,
      "ache": 5001,
      "eter": 5002,
      "Ġranged": 5003,
      "Ġkicked": 5004,
      "ĠMem": 5005,
      "ulous": 5006,
      "ĠWarri": 5007,
      "ĠWIL": 5008,
      "ĠBuild": 5009,
      "Ġgoes": 5010,
      "Ġunex": 5011,
      "ailing": 5012,
      "Ġforms": 5013,
      "Ġtalked": 5014,
      "uthless": 5015,
      "Ġpressed": 5016,
      "Ġmultiverse": 5017,
      "Ġcommand": 5018,
      "Ġamongst": 5019,
      "Ġreaction": 5020,
      "Bloodline": 5021,
      "Ġmerely": 5022,
      "Ġtendr": 5023,
      "Ġgoddess": 5024,
      "ltimately": 5025,
      "ĠForest": 5026,
      "Ad": 5027,
      "Besides": 5028,
      "Uh": 5029,
      "Very": 5030,
      "ran": 5031,
      "racted": 5032,
      "reak": 5033,
      "Ġciv": 5034,
      "Ġnest": 5035,
      "ĠHank": 5036,
      "Ġupward": 5037,
      "Ġfeared": 5038,
      "Ġclub": 5039,
      "osp": 5040,
      "ĠDark": 5041,
      "olin": 5042,
      "pless": 5043,
      "ultane": 5044,
      "Ġlargely": 5045,
      "ĠWhite": 5046,
      "Ġsilently": 5047,
      "Ġvisit": 5048,
      "Ġcombination": 5049,
      "ĠAlso": 5050,
      "Ġchanging": 5051,
      "Ġstrikes": 5052,
      "ĠChallenge": 5053,
      "Ġannoying": 5054,
      "ĠEveryone": 5055,
      "Ġperfectly": 5056,
      "Ġintegration": 5057,
      "Ġstreets": 5058,
      "Ġaccompl": 5059,
      "quirements": 5060,
      "ĠDavid": 5061,
      "Ġannoyance": 5062,
      "Ġcolleagues": 5063,
      "ongratulations": 5064,
      "Evie": 5065,
      "ean": 5066,
      "Ġbite": 5067,
      "Ġfly": 5068,
      "Ġfift": 5069,
      "Ġcry": 5070,
      "Ġmag": 5071,
      "arter": 5072,
      "Ġwash": 5073,
      "Ġaspect": 5074,
      "aming": 5075,
      "essence": 5076,
      "Ġexcellent": 5077,
      "ĠPER": 5078,
      "Ġsmart": 5079,
      "Ġunus": 5080,
      "Ġscree": 5081,
      "Ġroots": 5082,
      "Ġprim": 5083,
      "Ġinfluence": 5084,
      "Ġaccording": 5085,
      "Ġhunger": 5086,
      "ronze": 5087,
      "ĠBeast": 5088,
      "Ġhesitantly": 5089,
      "Ġhoriz": 5090,
      "Ġpromise": 5091,
      "Ġclimb": 5092,
      "ĠWisp": 5093,
      "Ġobvious": 5094,
      "Ġaffected": 5095,
      "ĠGabriel": 5096,
      "Ġenjoyed": 5097,
      "Ġantic": 5098,
      "Ġvoidbeast": 5099,
      "Special": 5100,
      "Ġskimmer": 5101,
      "Ġshifted": 5102,
      "Ġtemporary": 5103,
      "cons": 5104,
      "eg": 5105,
      "Ġfu": 5106,
      "Ġfists": 5107,
      "Ġmood": 5108,
      "adly": 5109,
      "omes": 5110,
      "Ġgap": 5111,
      "step": 5112,
      "Ġstair": 5113,
      "entress": 5114,
      "Ġlips": 5115,
      "Ġallies": 5116,
      "Ġdevelop": 5117,
      "Ġvent": 5118,
      "Ġscen": 5119,
      "Ġwhenever": 5120,
      "Ġstring": 5121,
      "Ġamazing": 5122,
      "âĢ¦\"": 5123,
      "Ġremains": 5124,
      "igned": 5125,
      "Ġhappily": 5126,
      "Ġrooms": 5127,
      "Ġaccompan": 5128,
      "ification": 5129,
      "Ġdiscuss": 5130,
      "Ġreflect": 5131,
      "Ġmarked": 5132,
      "Ġabsorbing": 5133,
      "Ġmentally": 5134,
      "Ġeaten": 5135,
      "Ġcontracts": 5136,
      "ĠĠĠĠ": 5137,
      "Everyone": 5138,
      "ĠTitle": 5139,
      "Ġspatial": 5140,
      "Ġgreeted": 5141,
      "Ġabsolutely": 5142,
      "crotic": 5143,
      "Congratulations": 5144,
      "Suddenly": 5145,
      "TR": 5146,
      "ium": 5147,
      "xler": 5148,
      "you": 5149,
      "Ġhanging": 5150,
      "Ġholes": 5151,
      "Ġtom": 5152,
      "Ġur": 5153,
      "kered": 5154,
      "Ġrum": 5155,
      "terday": 5156,
      "riad": 5157,
      "Ġspinning": 5158,
      "ĠCreat": 5159,
      "Ġenerg": 5160,
      "Ġmud": 5161,
      "ollow": 5162,
      "Ġrealised": 5163,
      "Ġexplan": 5164,
      "Ġafford": 5165,
      "Ġcarry": 5166,
      "Ġfractals": 5167,
      "Ġwarmth": 5168,
      "ĠControl": 5169,
      "ĠContinent": 5170,
      "Ġstruggled": 5171,
      "ĠQuest": 5172,
      "Next": 5173,
      "Ġexistence": 5174,
      "Ac": 5175,
      "Bec": 5176,
      "Farrah": 5177,
      "lies": 5178,
      "of": 5179,
      "ox": 5180,
      "walk": 5181,
      "Ġtone": 5182,
      "enom": 5183,
      "Ġshirt": 5184,
      "Ġintent": 5185,
      "Ġju": 5186,
      "ĠWould": 5187,
      "Ġagree": 5188,
      "Ġflames": 5189,
      "urning": 5190,
      "Ġmyster": 5191,
      "Ġcrit": 5192,
      "ĠInfused": 5193,
      "Ġappearing": 5194,
      "Ġcourty": 5195,
      "Ġdrinking": 5196,
      "Ġsteel": 5197,
      "Ġpaths": 5198,
      "Ġlimits": 5199,
      "ĠCosmos": 5200,
      "Ġsuspected": 5201,
      "ferior": 5202,
      "Ġdragged": 5203,
      "Ġparticular": 5204,
      "Ġconcerned": 5205,
      "Ġcrossed": 5206,
      "Ġordinary": 5207,
      "ĠAcid": 5208,
      "Ġregeneration": 5209,
      "Ġdistrict": 5210,
      "ĠStealth": 5211,
      "Ġrecovery": 5212,
      "Ġerected": 5213,
      "ademy": 5214,
      "12": 5215,
      "GL": 5216,
      "Type": 5217,
      "yard": 5218,
      "Ġhar": 5219,
      "Ġbacked": 5220,
      "Ġdumb": 5221,
      "Ġdaughter": 5222,
      "Ġlun": 5223,
      "Ġthor": 5224,
      "Ġpict": 5225,
      "aders": 5226,
      "elet": 5227,
      "elest": 5228,
      "Ġseat": 5229,
      "arded": 5230,
      "ĠMiranda": 5231,
      "asty": 5232,
      "Ġvital": 5233,
      "Ġorange": 5234,
      "ĠDexterity": 5235,
      "Ġleveling": 5236,
      "Ġscri": 5237,
      "Ġlights": 5238,
      "Ġhappens": 5239,
      "Ġmomentum": 5240,
      "Ġrunes": 5241,
      "Ġwaterfall": 5242,
      "Ġsays": 5243,
      "Ġevil": 5244,
      "ĠUnfortunately": 5245,
      "Ġdisappointed": 5246,
      "Ġtransp": 5247,
      "intessence": 5248,
      "Ġefforts": 5249,
      "Ġconnected": 5250,
      "Ġbranches": 5251,
      "Ġintegrated": 5252,
      "Ġsneak": 5253,
      "Ġswiftly": 5254,
      "Ġgarden": 5255,
      "Emir": 5256,
      "ĠJanos": 5257,
      "Because": 5258,
      "HP": 5259,
      "Sin": 5260,
      "Would": 5261,
      "Yet": 5262,
      "ball": 5263,
      "fit": 5264,
      "jected": 5265,
      "was": 5266,
      "Ġtough": 5267,
      "Ġwing": 5268,
      "itated": 5269,
      "itement": 5270,
      "Ġdi": 5271,
      "Ġdared": 5272,
      "Ġling": 5273,
      "acles": 5274,
      "ooldown": 5275,
      "Ġforget": 5276,
      "Ġmanif": 5277,
      "iger": 5278,
      "Ġquality": 5279,
      "Ġblinked": 5280,
      "ĠVvim": 5281,
      "Ġscy": 5282,
      "Ġsurged": 5283,
      "ival": 5284,
      "ruption": 5285,
      "Ġcurse": 5286,
      "Ġdefense": 5287,
      "Ġreasons": 5288,
      "ungeons": 5289,
      "Requirements": 5290,
      "Ġprepar": 5291,
      "Ġwoods": 5292,
      "ricted": 5293,
      "Ġpanic": 5294,
      "Ġparticip": 5295,
      "Ġdesigned": 5296,
      "Before": 5297,
      "Ġsearch": 5298,
      "errick": 5299,
      "Ġliterally": 5300,
      "Ġdimensional": 5301,
      "ultaneously": 5302,
      "Ġfifteen": 5303,
      "Cost": 5304,
      "Cooldown": 5305,
      "bot": 5306,
      "fluence": 5307,
      "la": 5308,
      "war": 5309,
      "Ġtaught": 5310,
      "resh": 5311,
      "reement": 5312,
      "Ġfacing": 5313,
      "ashes": 5314,
      "Ġtoken": 5315,
      "Ġgun": 5316,
      "elve": 5317,
      "Ġshare": 5318,
      "Ġsection": 5319,
      "ĠMatteo": 5320,
      "ĠBonus": 5321,
      "ths": 5322,
      "olve": 5323,
      "ĠLead": 5324,
      "ĠUp": 5325,
      "Inferior": 5326,
      "Ġtraps": 5327,
      "Ġinsight": 5328,
      "Ġswords": 5329,
      "Ġreturning": 5330,
      "Ġconfidence": 5331,
      "Ġimmediate": 5332,
      "Ġterrifying": 5333,
      "Ġadvice": 5334,
      "Ġconstruction": 5335,
      "Reign": 5336,
      "Ġsweet": 5337,
      "Ġcloth": 5338,
      "Ġyesterday": 5339,
      "Ġdefend": 5340,
      "ĠRemore": 5341,
      "iveness": 5342,
      "Ġenvironment": 5343,
      "Ġunusual": 5344,
      "Ġanticip": 5345,
      "Basic": 5346,
      "EX": 5347,
      "First": 5348,
      "Sure": 5349,
      "iating": 5350,
      "Ġmedi": 5351,
      "acting": 5352,
      "ĠHen": 5353,
      "Ġramp": 5354,
      "ĠSc": 5355,
      "Ġshore": 5356,
      "Ġshab": 5357,
      "Ġking": 5358,
      "ifying": 5359,
      "quis": 5360,
      "Ġconsequ": 5361,
      "ĠCons": 5362,
      "sely": 5363,
      "ĠDead": 5364,
      "Ġaggress": 5365,
      "Ġproved": 5366,
      "Ġguest": 5367,
      "Ġguide": 5368,
      "Ġremn": 5369,
      "Ġfeels": 5370,
      "Ġhelpless": 5371,
      "ĠKor": 5372,
      "Ġcrafting": 5373,
      "Ġwrit": 5374,
      "Ġsuppress": 5375,
      "Ġindent": 5376,
      "Ġlocated": 5377,
      "Ġcapable": 5378,
      "Ġrocky": 5379,
      "Ġadmin": 5380,
      "Ġelemental": 5381,
      "Ġchannels": 5382,
      "Ġwidened": 5383,
      "Ġfixed": 5384,
      "Ġadditional": 5385,
      "uskleaf": 5386,
      "Ġdrawn": 5387,
      "Ġunexpected": 5388,
      "Ġthorough": 5389,
      "See": 5390,
      "iation": 5391,
      "iable": 5392,
      "itched": 5393,
      "Ġfat": 5394,
      "Ġcous": 5395,
      "Ġpost": 5396,
      "oration": 5397,
      "Ġstead": 5398,
      "Ġshout": 5399,
      "Ġconven": 5400,
      "Ġexited": 5401,
      "ulner": 5402,
      "ieved": 5403,
      "Ġvapor": 5404,
      "ĠVIT": 5405,
      "Ġstrang": 5406,
      "cknow": 5407,
      "Ġmyst": 5408,
      "ĠThree": 5409,
      "ĠStag": 5410,
      "udson": 5411,
      "Ġ16": 5412,
      "Ġhalfway": 5413,
      "Ġmemories": 5414,
      "ĠOrit": 5415,
      "Ġbarrel": 5416,
      "Ġextreme": 5417,
      "Ġsucked": 5418,
      "Ġruin": 5419,
      "Ġattempted": 5420,
      "Only": 5421,
      "Ġconnect": 5422,
      "Ġobjective": 5423,
      "Ġdragon": 5424,
      "Ġevents": 5425,
      "scape": 5426,
      "Ġobserved": 5427,
      "Ġforgotten": 5428,
      "Actually": 5429,
      "Ġpublic": 5430,
      "Ġscythe": 5431,
      "Gary": 5432,
      "foot": 5433,
      "iest": 5434,
      "ners": 5435,
      "pire": 5436,
      "ye": 5437,
      "zens": 5438,
      "Ġaper": 5439,
      "Ġcam": 5440,
      "Ġda": 5441,
      "alking": 5442,
      "Their": 5443,
      "Ġframe": 5444,
      "ĠShap": 5445,
      "une": 5446,
      "raught": 5447,
      "Ġvic": 5448,
      "ĠRo": 5449,
      "ĠDorgan": 5450,
      "Ġprofess": 5451,
      "ĠLooking": 5452,
      "ĠVentress": 5453,
      "Ġturns": 5454,
      "Ġtrip": 5455,
      "Ġperception": 5456,
      "Ġremoved": 5457,
      "Ġ19": 5458,
      "Ġ21": 5459,
      "Ġrestricted": 5460,
      "ĠWexler": 5461,
      "Ġboars": 5462,
      "Ġcharac": 5463,
      "Ġsuppose": 5464,
      "Ġstartled": 5465,
      "Ġexcitement": 5466,
      "Ġhesitate": 5467,
      "Ġrecognize": 5468,
      "Ġjobs": 5469,
      "Ġambient": 5470,
      "Ġstructures": 5471,
      "Ġsurprisingly": 5472,
      "Ġshooting": 5473,
      "Ġnervous": 5474,
      "Ġcircumstances": 5475,
      "Ġbridge": 5476,
      "Ġghost": 5477,
      "auldron": 5478,
      "walker": 5479,
      "Ġcourtyard": 5480,
      "ĠKorva": 5481,
      "Dark": 5482,
      "rint": 5483,
      "uge": 5484,
      "uits": 5485,
      "vity": 5486,
      "Ġage": 5487,
      "Ġacknow": 5488,
      "Ġfucking": 5489,
      "atcher": 5490,
      "Ġdense": 5491,
      "Ġdirt": 5492,
      "Ġdomin": 5493,
      "acher": 5494,
      "Ġbear": 5495,
      "Ġstock": 5496,
      "ooked": 5497,
      "ilies": 5498,
      "Ġoutpost": 5499,
      "Ġjourney": 5500,
      "ĠColin": 5501,
      "Ġvess": 5502,
      "ĠDEX": 5503,
      "Ġoverwhel": 5504,
      "ĠOver": 5505,
      "Ġprove": 5506,
      "Ġflowing": 5507,
      "Ġscar": 5508,
      "Ġscale": 5509,
      "Ġscene": 5510,
      "abl": 5511,
      "Ġgrunt": 5512,
      "Ġcracks": 5513,
      "Ġempl": 5514,
      "Ġdistract": 5515,
      "Ġ22": 5516,
      "ficiency": 5517,
      "Ġpassive": 5518,
      "Ġanswers": 5519,
      "Ġbadger": 5520,
      "ship": 5521,
      "Ġdefens": 5522,
      "strid": 5523,
      "Ġmission": 5524,
      "Ġproperties": 5525,
      "Ġprior": 5526,
      "Ġannoyed": 5527,
      "Ġpatient": 5528,
      "Once": 5529,
      "Ġmixed": 5530,
      "Ġobsc": 5531,
      "ternal": 5532,
      "Ġinjuries": 5533,
      "Ġzombie": 5534,
      "Ġclaimed": 5535,
      "Ġaffliction": 5536,
      "ĠTemple": 5537,
      "Ġlaunched": 5538,
      "Ġbastard": 5539,
      "ĠBuilder": 5540,
      "ĠKorvaa": 5541,
      "Get": 5542,
      "Right": 5543,
      "Tit": 5544,
      "af": 5545,
      "digious": 5546,
      "mand": 5547,
      "uch": 5548,
      "varre": 5549,
      "yn": 5550,
      "Ġtens": 5551,
      "Ġsizz": 5552,
      "reg": 5553,
      "atory": 5554,
      "Ġdiam": 5555,
      "arch": 5556,
      "Ġriver": 5557,
      "Ġraces": 5558,
      "ags": 5559,
      "Ġshap": 5560,
      "ighting": 5561,
      "Ġspraw": 5562,
      "Ġagreement": 5563,
      "ĠOh": 5564,
      "Ġplate": 5565,
      "Ġproven": 5566,
      "Ġunle": 5567,
      "ĠLet": 5568,
      "Ġstrings": 5569,
      "Ġgrinding": 5570,
      "Ġtrig": 5571,
      "Ġbuff": 5572,
      "Ġdecide": 5573,
      "ĠNevarre": 5574,
      "Ġassume": 5575,
      "Ġcursed": 5576,
      "Ġrelieved": 5577,
      "iction": 5578,
      "Ġsupply": 5579,
      "Ġarrive": 5580,
      "ĠUnknown": 5581,
      "Ġshields": 5582,
      "Ġhallway": 5583,
      "Ġspreading": 5584,
      "Ġsurrounding": 5585,
      "Ġcasual": 5586,
      "Ġshimmering": 5587,
      "Ġrelaxed": 5588,
      "Ġchuckled": 5589,
      "Ġenergies": 5590,
      "Ġexplanation": 5591,
      "Please": 5592,
      "wak": 5593,
      "Ġaverage": 5594,
      "Ġdang": 5595,
      "Ġlord": 5596,
      "Ġlumber": 5597,
      "orting": 5598,
      "omain": 5599,
      "Ġgains": 5600,
      "Ġwasted": 5601,
      "ids": 5602,
      "acial": 5603,
      "Ġnine": 5604,
      "aler": 5605,
      "ote": 5606,
      "ĠINT": 5607,
      "ĠHester": 5608,
      "Ġrust": 5609,
      "Ġexisted": 5610,
      "Ġjagged": 5611,
      "Ġfeed": 5612,
      "odge": 5613,
      "ounding": 5614,
      "Ġunm": 5615,
      "Ġunlike": 5616,
      "Ġuncommon": 5617,
      "Ġslowed": 5618,
      "ĠVenom": 5619,
      "ĠThom": 5620,
      "Those": 5621,
      "Ġfamilies": 5622,
      "Ġcuriously": 5623,
      "Ġrestore": 5624,
      "Ġsnorted": 5625,
      "Ġbegun": 5626,
      "Ġaccum": 5627,
      "Ġstepping": 5628,
      "Ġexperiment": 5629,
      "ĠReward": 5630,
      "ĠSharp": 5631,
      "Ġseriously": 5632,
      "Ġwounded": 5633,
      "Ġcreep": 5634,
      "Ġspots": 5635,
      "Ġfigures": 5636,
      "Ġcircular": 5637,
      "Ġsigns": 5638,
      "Ġzone": 5639,
      "Ġlisten": 5640,
      "Ġpromised": 5641,
      "luded": 5642,
      "ĠDean": 5643,
      "Ġcatching": 5644,
      "mission": 5645,
      "Ġpleasant": 5646,
      "Ġexhausted": 5647,
      "Ġteleportation": 5648,
      "Ġconcoction": 5649,
      "Ġsymb": 5650,
      "ĠSmith": 5651,
      "ĠKeane": 5652,
      "Ġchimera": 5653,
      "ĠGuard": 5654,
      "Ġinvestig": 5655,
      "ĠHarrowings": 5656,
      "Con": 5657,
      "New": 5658,
      "ek": 5659,
      "eeling": 5660,
      "mosp": 5661,
      "sm": 5662,
      "Ġ&": 5663,
      "Ġward": 5664,
      "Ġhy": 5665,
      "Ġbond": 5666,
      "Ġfill": 5667,
      "Ġcit": 5668,
      "Ġthief": 5669,
      "orger": 5670,
      "Ġgreed": 5671,
      "lement": 5672,
      "Ġrev": 5673,
      "Ġrein": 5674,
      "ural": 5675,
      "Ġatmosp": 5676,
      "rost": 5677,
      "ĠMon": 5678,
      "Ġspike": 5679,
      "astic": 5680,
      "ĠTri": 5681,
      "ĠDust": 5682,
      "Ġunivers": 5683,
      "ĠVault": 5684,
      "Ġhandful": 5685,
      "Ġscrap": 5686,
      "Ġapprec": 5687,
      "Ġrealm": 5688,
      "Ġrealise": 5689,
      "Ġrecently": 5690,
      "Ġ23": 5691,
      "ups": 5692,
      "Ġtrail": 5693,
      "Ġsooner": 5694,
      "Ġinvaders": 5695,
      "Ġpractically": 5696,
      "Ġmenu": 5697,
      "Ġsummoning": 5698,
      "ĠGreenworth": 5699,
      "Ġtemple": 5700,
      "Ġdodging": 5701,
      "Ġchecking": 5702,
      "Ġmuscle": 5703,
      "ĠSlayer": 5704,
      "Ġscrambled": 5705,
      "Ġuncomfortable": 5706,
      "Ġtilted": 5707,
      "Ġscenari": 5708,
      "ĠShaping": 5709,
      "Ġprofessions": 5710,
      "11": 5711,
      "EE": 5712,
      "En": 5713,
      "erest": 5714,
      "fl": 5715,
      "fire": 5716,
      "long": 5717,
      "mp": 5718,
      "Ġtang": 5719,
      "Ġbomb": 5720,
      "itor": 5721,
      "Ġmil": 5722,
      "Ġdensity": 5723,
      "Ġlung": 5724,
      "Ġpointing": 5725,
      "Ġinev": 5726,
      "entless": 5727,
      "ĠHo": 5728,
      "Ġrate": 5729,
      "Ġkit": 5730,
      "astion": 5731,
      "Ġevening": 5732,
      "ĠGe": 5733,
      "actly": 5734,
      "anks": 5735,
      "Ġgrub": 5736,
      "udge": 5737,
      "Ġelabor": 5738,
      "Ġ17": 5739,
      "Ġpopped": 5740,
      "Ġrune": 5741,
      "ielding": 5742,
      "Ġrelations": 5743,
      "Ġrestored": 5744,
      "Ġdrain": 5745,
      "Ġforever": 5746,
      "ĠAdds": 5747,
      "Ġhesitated": 5748,
      "Ġ40": 5749,
      "Ġwondering": 5750,
      "Ġwildly": 5751,
      "Ġloudly": 5752,
      "Ġspecies": 5753,
      "Ġproduce": 5754,
      "Ġbolts": 5755,
      "Ġfavor": 5756,
      "Ġprevious": 5757,
      "Ġcrimson": 5758,
      "Ġrepresent": 5759,
      "Ġachieve": 5760,
      "stei": 5761,
      "Ġcousin": 5762,
      "Ġsymbol": 5763,
      "Free": 5764,
      "Hu": 5765,
      "Out": 5766,
      "PG": 5767,
      "Skill": 5768,
      "aulted": 5769,
      "cil": 5770,
      "cension": 5771,
      "handed": 5772,
      "lace": 5773,
      "Ġwished": 5774,
      "Ġfold": 5775,
      "Ġcrew": 5776,
      "adir": 5777,
      "iminate": 5778,
      "Ġstare": 5779,
      "Ġwea": 5780,
      "Ġrout": 5781,
      "ĠSel": 5782,
      "Ġisol": 5783,
      "umer": 5784,
      "Ġexamin": 5785,
      "Ġchunk": 5786,
      "isting": 5787,
      "ĠDuskleaf": 5788,
      "olas": 5789,
      "Ġtwelve": 5790,
      "action": 5791,
      "ples": 5792,
      "Ġcontain": 5793,
      "umping": 5794,
      "Ġimps": 5795,
      "Ġdeser": 5796,
      "Ġmonstrous": 5797,
      "imming": 5798,
      "Ġgrounds": 5799,
      "ahadir": 5800,
      "Ġboard": 5801,
      "Ġforearm": 5802,
      "Ġforwards": 5803,
      "Ġstealth": 5804,
      "Ġolder": 5805,
      "Stone": 5806,
      "Ġhumanity": 5807,
      "Ġranks": 5808,
      "Ġserpent": 5809,
      "Ġcultist": 5810,
      "Ġhurried": 5811,
      "Ġcollected": 5812,
      "Ġsquad": 5813,
      "ĠBeing": 5814,
      "Ġdried": 5815,
      "Ġdrifted": 5816,
      "Ġreport": 5817,
      "Ġshipyard": 5818,
      "Shadow": 5819,
      "Ġactivate": 5820,
      "ĠZone": 5821,
      "Ġimpression": 5822,
      "Ġbottles": 5823,
      "Ġinjured": 5824,
      "Ġproduct": 5825,
      "Ġinitial": 5826,
      "Ġleech": 5827,
      "Ġincluded": 5828,
      "Ġseeds": 5829,
      "Ġshoved": 5830,
      "Ġindividual": 5831,
      "Ġschool": 5832,
      "ĠLeader": 5833,
      "Ġcitizens": 5834,
      "Des": 5835,
      "TH": 5836,
      "ere": 5837,
      "Ġtiger": 5838,
      "Ġaut": 5839,
      "inating": 5840,
      "Ġsore": 5841,
      "Ġfurn": 5842,
      "Ġmant": 5843,
      "Ġdress": 5844,
      "Ġinher": 5845,
      "Ġgent": 5846,
      "otect": 5847,
      "ĠIl": 5848,
      "ayden": 5849,
      "Ġlif": 5850,
      "Ġshard": 5851,
      "Ġshak": 5852,
      "Ġshift": 5853,
      "ĠHeavens": 5854,
      "Ġalarm": 5855,
      "umm": 5856,
      "Ġaband": 5857,
      "Ġspray": 5858,
      "chanted": 5859,
      "Ġexch": 5860,
      "Ġjaw": 5861,
      "ĠCond": 5862,
      "ĠTouch": 5863,
      "Ġclue": 5864,
      "apon": 5865,
      "irect": 5866,
      "ĠLadder": 5867,
      "izard": 5868,
      "Ġacademy": 5869,
      "ĠStream": 5870,
      "Ġcrashed": 5871,
      "Ġworlds": 5872,
      "Ġcheap": 5873,
      "Ġretrie": 5874,
      "reasure": 5875,
      "Ġeffectiveness": 5876,
      "Ġcorruption": 5877,
      "Ġaccident": 5878,
      "ĠWhatever": 5879,
      "Ġcores": 5880,
      "Ġlanding": 5881,
      "ĠAllows": 5882,
      "Ġsolution": 5883,
      "Ġpaid": 5884,
      "Ġstruggle": 5885,
      "Thanks": 5886,
      "ĠJoh": 5887,
      "Ġpreferred": 5888,
      "ylon": 5889,
      "Ġfroze": 5890,
      "Ġmaximum": 5891,
      "Ġunhapp": 5892,
      "bal": 5893,
      "nest": 5894,
      "wed": 5895,
      "yc": 5896,
      "Ġta": 5897,
      "Ġaud": 5898,
      "Ġaxes": 5899,
      "Ġbree": 5900,
      "Ġfreed": 5901,
      "arg": 5902,
      "Ġpage": 5903,
      "uty": 5904,
      "Ġstro": 5905,
      "ickered": 5906,
      "Ġraw": 5907,
      "Ġrib": 5908,
      "cend": 5909,
      "Ġneat": 5910,
      "Ġjer": 5911,
      "Ġdozens": 5912,
      "ounded": 5913,
      "akened": 5914,
      "Ġfled": 5915,
      "Ġslipped": 5916,
      "icholas": 5917,
      "Ġscr": 5918,
      "Ġattached": 5919,
      "Ġelect": 5920,
      "Ġvoices": 5921,
      "Ġdamaged": 5922,
      "Ġconsumption": 5923,
      "Ġimmense": 5924,
      "Ġfurious": 5925,
      "ĠRealm": 5926,
      "Stamina": 5927,
      "Ġbreathed": 5928,
      "Ġincreasingly": 5929,
      "ugur": 5930,
      "ĠArch": 5931,
      "Ġattempting": 5932,
      "Ġclimbing": 5933,
      "rified": 5934,
      "Ġkids": 5935,
      "ĠPrimal": 5936,
      "Ġarchway": 5937,
      "Ġconfirm": 5938,
      "Ġbolt": 5939,
      "Ġdetermined": 5940,
      "Ġrainbow": 5941,
      "Ġscratched": 5942,
      "Ġhammer": 5943,
      "Ġconvenient": 5944,
      "100": 5945,
      "Come": 5946,
      "Epic": 5947,
      "Lo": 5948,
      "Less": 5949,
      "born": 5950,
      "cause": 5951,
      "do": 5952,
      "houses": 5953,
      "pha": 5954,
      "rnest": 5955,
      "hem": 5956,
      "Ġsink": 5957,
      "Ġfal": 5958,
      "Ġfang": 5959,
      "Ġfaced": 5960,
      "Ġfisher": 5961,
      "Ġcrest": 5962,
      "Ġdull": 5963,
      "Ġdungeons": 5964,
      "Ġpet": 5965,
      "Ġinject": 5966,
      "ĠHas": 5967,
      "ĠHudson": 5968,
      "Ġwear": 5969,
      "ĠApe": 5970,
      "emon": 5971,
      "Ġshame": 5972,
      "ĠHealer": 5973,
      "ĠFort": 5974,
      "ĠMarshall": 5975,
      "ulf": 5976,
      "ulting": 5977,
      "Ġdock": 5978,
      "Ġchances": 5979,
      "ocrat": 5980,
      "ĠPylon": 5981,
      "ĠDomin": 5982,
      "olen": 5983,
      "Ġcann": 5984,
      "Ġstrateg": 5985,
      "Ġacting": 5986,
      "Ġlightly": 5987,
      "Ġ100": 5988,
      "Ġassist": 5989,
      "Ġ26": 5990,
      "ĠUmb": 5991,
      "Ġconscious": 5992,
      "Ġgreatest": 5993,
      "Ġ35": 5994,
      "Ġfourth": 5995,
      "anned": 5996,
      "Ġexcl": 5997,
      "Ġexciting": 5998,
      "Ġhorn": 5999,
      "Ġamounts": 6000,
      "Ġdealt": 6001,
      "Ġteleported": 6002,
      "Ġangri": 6003,
      "Ġlayer": 6004,
      "Ġdescribed": 6005,
      "Ġgripped": 6006,
      "Ġparticularly": 6007,
      "Ġhordes": 6008,
      "Ġsuperior": 6009,
      "Ġtoxins": 6010,
      "Ġfairly": 6011,
      "Ġaimed": 6012,
      "Ġcompany": 6013,
      "Ġsatisfied": 6014,
      "ceeded": 6015,
      "Ġscript": 6016,
      "OU": 6017,
      "Our": 6018,
      "Time": 6019,
      "called": 6020,
      "ker": 6021,
      "ses": 6022,
      "tles": 6023,
      "then": 6024,
      "ulet": 6025,
      "wing": 6026,
      "Ġaward": 6027,
      "Ġsack": 6028,
      "Ġsought": 6029,
      "Ġcell": 6030,
      "Ġmages": 6031,
      "Ġet": 6032,
      "Ġbeak": 6033,
      "Ġstored": 6034,
      "Ġstolen": 6035,
      "oted": 6036,
      "Ġrely": 6037,
      "Ġyanked": 6038,
      "ĠHad": 6039,
      "ĠHaar": 6040,
      "sell": 6041,
      "amwalker": 6042,
      "ĠAz": 6043,
      "riend": 6044,
      "Ġouter": 6045,
      "Ġintention": 6046,
      "ĠTin": 6047,
      "ĠTreasure": 6048,
      "Ġfeather": 6049,
      "ocaly": 6050,
      "Ġarg": 6051,
      "Ġarr": 6052,
      "elling": 6053,
      "Ġflower": 6054,
      "onder": 6055,
      "Ġadapt": 6056,
      "Ġenth": 6057,
      "Ġtext": 6058,
      "Ġbothered": 6059,
      "Ġremark": 6060,
      "rub": 6061,
      "ĠUstei": 6062,
      "Ġforming": 6063,
      "Ġstandard": 6064,
      "hole": 6065,
      "Ġapolog": 6066,
      "Ġcaptain": 6067,
      "gested": 6068,
      "Ġphysically": 6069,
      "ĠAgain": 6070,
      "ĠGuilders": 6071,
      "Spell": 6072,
      "Ġshifting": 6073,
      "Ġconvin": 6074,
      "Intelligence": 6075,
      "ydra": 6076,
      "Ġcabin": 6077,
      "Ġoccupied": 6078,
      "Luckily": 6079,
      "Ġmargoll": 6080,
      "Ġtomorrow": 6081,
      "Ġaperture": 6082,
      "Ġemploy": 6083,
      "Ġbreeze": 6084,
      "Cor": 6085,
      "Endurance": 6086,
      "ders": 6087,
      "ole": 6088,
      "teen": 6089,
      "watch": 6090,
      "inated": 6091,
      "itary": 6092,
      "Ġfil": 6093,
      "Ġfem": 6094,
      "Ġfirm": 6095,
      "Ġcried": 6096,
      "Ġmas": 6097,
      "Ġdur": 6098,
      "Ġdressed": 6099,
      "Ġlur": 6100,
      "Ġlimp": 6101,
      "Ġproud": 6102,
      "Ġinward": 6103,
      "Ġrich": 6104,
      "Ġshards": 6105,
      "Ġsevere": 6106,
      "unning": 6107,
      "Ġspare": 6108,
      "ĠBra": 6109,
      "ĠBahadir": 6110,
      "Ġclen": 6111,
      "Ġcliff": 6112,
      "ĠEither": 6113,
      "istic": 6114,
      "Hell": 6115,
      "ĠNight": 6116,
      "Ġoverly": 6117,
      "Ġflight": 6118,
      "Ġflick": 6119,
      "Ġunaw": 6120,
      "pering": 6121,
      "ĠLand": 6122,
      "Ġslid": 6123,
      "Ġcompre": 6124,
      "renok": 6125,
      "Ġelite": 6126,
      "Ġinstruct": 6127,
      "chen": 6128,
      "ystic": 6129,
      "Ġwaist": 6130,
      "Ġdistur": 6131,
      "Ġdistant": 6132,
      "Ġdistinct": 6133,
      "Ġpassage": 6134,
      "issa": 6135,
      "ĠLearned": 6136,
      "Ġlesson": 6137,
      "Ġforehead": 6138,
      "Ġtrapped": 6139,
      "Ġnodding": 6140,
      "Ġcamps": 6141,
      "Nothing": 6142,
      "Ġadvanced": 6143,
      "Ġwaters": 6144,
      "ĠCharge": 6145,
      "Ġevolve": 6146,
      "Ġefficient": 6147,
      "iques": 6148,
      "Shit": 6149,
      "Ġbushes": 6150,
      "econd": 6151,
      "Ġexpecting": 6152,
      "Ġreceive": 6153,
      "Ġgroan": 6154,
      "Ġsleeping": 6155,
      "board": 6156,
      "Ġmethods": 6157,
      "Ġsearching": 6158,
      "Ġgnome": 6159,
      "Ġopponent": 6160,
      "Ġsnarled": 6161,
      "Ġtendrils": 6162,
      "ulnerable": 6163,
      "Ġshapes": 6164,
      "Ġelaborate": 6165,
      "Ġrelationship": 6166,
      "Ġisolated": 6167,
      "ĠCondition": 6168,
      "ĠUmbra": 6169,
      "Fire": 6170,
      "Jory": 6171,
      "Taking": 6172,
      "Vitality": 6173,
      "Wis": 6174,
      "hand": 6175,
      "hold": 6176,
      "ius": 6177,
      "rit": 6178,
      "atching": 6179,
      "Ġcand": 6180,
      "Ġcauldron": 6181,
      "Ġmaw": 6182,
      "arissa": 6183,
      "Ġpatch": 6184,
      "Ġepic": 6185,
      "Ġnasty": 6186,
      "ential": 6187,
      "ĠHayden": 6188,
      "Ġforty": 6189,
      "aying": 6190,
      "ayne": 6191,
      "ĠSack": 6192,
      "ĠSee": 6193,
      "Ġliz": 6194,
      "robat": 6195,
      "ĠJerrick": 6196,
      "ems": 6197,
      "Ġshone": 6198,
      "Ġshower": 6199,
      "Ġshrie": 6200,
      "Ġleaped": 6201,
      "rific": 6202,
      "Ġsped": 6203,
      "char": 6204,
      "ĠBad": 6205,
      "ĠBilly": 6206,
      "aptain": 6207,
      "Ġshel": 6208,
      "Health": 6209,
      "Ġsmir": 6210,
      "ĠGood": 6211,
      "ĠVane": 6212,
      "Ġstrained": 6213,
      "orde": 6214,
      "Ġcontem": 6215,
      "Ġtear": 6216,
      "Ġteach": 6217,
      "Ġtears": 6218,
      "venturing": 6219,
      "Ġbrick": 6220,
      "Ġampl": 6221,
      "mend": 6222,
      "Ġperiod": 6223,
      "Ġbuzz": 6224,
      "Ġinstances": 6225,
      "Ġrecord": 6226,
      "ĠKings": 6227,
      "Ġawful": 6228,
      "Ġexpert": 6229,
      "Ġbench": 6230,
      "coming": 6231,
      "Without": 6232,
      "Ġpills": 6233,
      "ĠOfrenok": 6234,
      "Ġnecklace": 6235,
      "Ġangle": 6236,
      "aimed": 6237,
      "Ġmixing": 6238,
      "Ġobjects": 6239,
      "Ġissues": 6240,
      "Ġlaughing": 6241,
      "Ġservice": 6242,
      "Grade": 6243,
      "Ġpocket": 6244,
      "Ġgasped": 6245,
      "Ġkitchen": 6246,
      "Sc": 6247,
      "TY": 6248,
      "Tutorial": 6249,
      "Was": 6250,
      "aire": 6251,
      "book": 6252,
      "con": 6253,
      "gement": 6254,
      "lied": 6255,
      "sion": 6256,
      "shap": 6257,
      "Ġsust": 6258,
      "erated": 6259,
      "isation": 6260,
      "Ġmate": 6261,
      "Ġmaze": 6262,
      "Ġloun": 6263,
      "Ġpacked": 6264,
      "Ġinfused": 6265,
      "elp": 6266,
      "iculous": 6267,
      "Ġreck": 6268,
      "Ġsav": 6269,
      "Ġhaul": 6270,
      "ays": 6271,
      "ayed": 6272,
      "ĠSurv": 6273,
      "rog": 6274,
      "Ġleaning": 6275,
      "Ġoutworlder": 6276,
      "Ġaltern": 6277,
      "ĠMeditation": 6278,
      "Ġintact": 6279,
      "Ġintric": 6280,
      "Ġspir": 6281,
      "Ġspaces": 6282,
      "Ġmang": 6283,
      "Ġvines": 6284,
      "ĠEstrid": 6285,
      "Ġloop": 6286,
      "Ġorbs": 6287,
      "Ġknives": 6288,
      "ĠRuin": 6289,
      "Ġenh": 6290,
      "Ġtrained": 6291,
      "Ġsheer": 6292,
      "Ġplain": 6293,
      "ĠGrand": 6294,
      "Ġflu": 6295,
      "ĠLight": 6296,
      "Ġaftern": 6297,
      "Ġamulet": 6298,
      "Ġkills": 6299,
      "ĠStep": 6300,
      "Ġglared": 6301,
      "Ġforeign": 6302,
      "Ġbadly": 6303,
      "Instead": 6304,
      "Stat": 6305,
      "ĠAdran": 6306,
      "Ġ31": 6307,
      "Ġconflict": 6308,
      "ĠNothing": 6309,
      "Ġfaction": 6310,
      "Ġbroad": 6311,
      "Ġdisappoint": 6312,
      "Ġsimultaneously": 6313,
      "Ġdealing": 6314,
      "Ġdestruction": 6315,
      "ĠLords": 6316,
      "Ġcultivator": 6317,
      "Ġarena": 6318,
      "Ġimagined": 6319,
      "Ġimpressed": 6320,
      "Ġmarks": 6321,
      "Ġterrain": 6322,
      "Ġpopulation": 6323,
      "Ġdigging": 6324,
      "Ġskept": 6325,
      "Ġnetwork": 6326,
      "hetic": 6327,
      "Ġvoidbeasts": 6328,
      "Ġaccompanied": 6329,
      "Ġadminist": 6330,
      "ĠSharpness": 6331,
      "Ġatmosphere": 6332,
      "ocalypse": 6333,
      "Wisdom": 6334,
      "25": 6335,
      "Cont": 6336,
      "Danielle": 6337,
      "Have": 6338,
      "back": 6339,
      "bish": 6340,
      "cue": 6341,
      "eal": 6342,
      "iants": 6343,
      "mit": 6344,
      "sy": 6345,
      "specially": 6346,
      "Ġbill": 6347,
      "erior": 6348,
      "Ġfund": 6349,
      "ases": 6350,
      "Ġthud": 6351,
      "Ġgam": 6352,
      "uted": 6353,
      "Ġnames": 6354,
      "Ġultimately": 6355,
      "Ġrise": 6356,
      "Ġfrant": 6357,
      "ĠSw": 6358,
      "ember": 6359,
      "Ġexception": 6360,
      "Ġchairs": 6361,
      "Ġdear": 6362,
      "Ġvide": 6363,
      "ĠEver": 6364,
      "ĠErnest": 6365,
      "ods": 6366,
      "ĠRare": 6367,
      "Ġtracks": 6368,
      "Ġgolem": 6369,
      "Ġagony": 6370,
      "Ġflashing": 6371,
      "Ġscaled": 6372,
      "Ġheadache": 6373,
      "Ġtearing": 6374,
      "Ġincoming": 6375,
      "ĠStr": 6376,
      "Ġemotion": 6377,
      "Ġrecall": 6378,
      "ighb": 6379,
      "pleas": 6380,
      "Ġbreathe": 6381,
      "Ġcreation": 6382,
      "Ġarrival": 6383,
      "Ġcombined": 6384,
      "idding": 6385,
      "ĠSphere": 6386,
      "Ġdelight": 6387,
      "Ġactivity": 6388,
      "Ġrituals": 6389,
      "Ġvillages": 6390,
      "Ġviewing": 6391,
      "Ġwandered": 6392,
      "Ġpatterns": 6393,
      "ÂłÂł": 6394,
      "Ġsuggested": 6395,
      "Ġpenetrate": 6396,
      "Ġresponsible": 6397,
      "Ġflooded": 6398,
      "Ġmajority": 6399,
      "Ġvials": 6400,
      "ĠIncreas": 6401,
      "sembled": 6402,
      "Ġmysterious": 6403,
      "Ġconsequences": 6404,
      "ĠJohn": 6405,
      "Loamwalker": 6406,
      "ĠHaarwatch": 6407,
      "robatics": 6408,
      "Status": 6409,
      "15": 6410,
      "Belinda": 6411,
      "Having": 6412,
      "Mr": 6413,
      "based": 6414,
      "eep": 6415,
      "yan": 6416,
      "zla": 6417,
      "Ġtong": 6418,
      "Ġsouth": 6419,
      "Ġwife": 6420,
      "Ġwiped": 6421,
      "erate": 6422,
      "Ġfant": 6423,
      "ench": 6424,
      "Ġdug": 6425,
      "Ġstall": 6426,
      "Ġsticking": 6427,
      "iciency": 6428,
      "etween": 6429,
      "Ġrip": 6430,
      "ĠAGL": 6431,
      "Ġlegendary": 6432,
      "ppy": 6433,
      "Ġkil": 6434,
      "ifier": 6435,
      "Ġali": 6436,
      "unks": 6437,
      "ĠToo": 6438,
      "ĠBite": 6439,
      "ĠEpic": 6440,
      "osity": 6441,
      "ĠRuthless": 6442,
      "Ġcomfort": 6443,
      "ĠPain": 6444,
      "ĠDraught": 6445,
      "Here": 6446,
      "Ġplus": 6447,
      "Ġflowers": 6448,
      "ĠLady": 6449,
      "Ġslower": 6450,
      "Ġslapped": 6451,
      "Ġoffensive": 6452,
      "Ġadventuring": 6453,
      "Ġteacher": 6454,
      "ivine": 6455,
      "Ġcrushed": 6456,
      "Ġembed": 6457,
      "Ġ28": 6458,
      "Ġregion": 6459,
      "Inc": 6460,
      "Ġpoisoned": 6461,
      "Ġinspect": 6462,
      "Ġshadowy": 6463,
      "oyal": 6464,
      "Ġcampus": 6465,
      "Ġcaut": 6466,
      "Ġhorrifying": 6467,
      "ĠProtect": 6468,
      "bris": 6469,
      "Ġdefeated": 6470,
      "Ġinitially": 6471,
      "enebr": 6472,
      "Ġrevealed": 6473,
      "nowledge": 6474,
      "Ġpierced": 6475,
      "Ġsinister": 6476,
      "Ġbubble": 6477,
      "ĠMemory": 6478,
      "Ġcivil": 6479,
      "Ġaggressive": 6480,
      "Ġscenario": 6481,
      "ĠGeist": 6482,
      "Huh": 6483,
      "Ġgentle": 6484,
      "ĠAzh": 6485,
      "Ab": 6486,
      "OO": 6487,
      "OR": 6488,
      "Po": 6489,
      "cers": 6490,
      "gen": 6491,
      "ground": 6492,
      "gged": 6493,
      "pair": 6494,
      "rage": 6495,
      "water": 6496,
      "xim": 6497,
      "Ġtied": 6498,
      "Ġhost": 6499,
      "asc": 6500,
      "Ġcrou": 6501,
      "Ġcru": 6502,
      "Ġcyc": 6503,
      "Ġmach": 6504,
      "Ġgates": 6505,
      "Ġwashed": 6506,
      "Ġstren": 6507,
      "ĠHigh": 6508,
      "ĠHoly": 6509,
      "ĠHorde": 6510,
      "ĠSig": 6511,
      "agram": 6512,
      "rop": 6513,
      "Ġshred": 6514,
      "Ġneighb": 6515,
      "Ġnoticing": 6516,
      "Ġspit": 6517,
      "Ġexam": 6518,
      "Ġjo": 6519,
      "ĠComp": 6520,
      "ĠWater": 6521,
      "ĠTw": 6522,
      "ĠTenebr": 6523,
      "ntil": 6524,
      "ĠGained": 6525,
      "Ġflowed": 6526,
      "Ġslip": 6527,
      "ĠVery": 6528,
      "pled": 6529,
      "Ġcontents": 6530,
      "Ġdisorient": 6531,
      "Ġgrace": 6532,
      "Ġresulted": 6533,
      "ĠClarissa": 6534,
      "udging": 6535,
      "Ġperman": 6536,
      "Ġmonstros": 6537,
      "Ġopin": 6538,
      "Ġexplore": 6539,
      "Ġwaving": 6540,
      "ĠAtt": 6541,
      "Ġcalling": 6542,
      "Ġpossibility": 6543,
      "Ġterror": 6544,
      "Ġrefle": 6545,
      "theless": 6546,
      "Really": 6547,
      "Ġjumping": 6548,
      "Ġprepare": 6549,
      "Ġactivities": 6550,
      "Ġswept": 6551,
      "Ġtowers": 6552,
      "Ġmeditating": 6553,
      "Ġwarily": 6554,
      "Ġstories": 6555,
      "Ġbenefit": 6556,
      "Ġelementals": 6557,
      "ĠEyes": 6558,
      "Archer": 6559,
      "atchetman": 6560,
      "Ġcontrolled": 6561,
      "Ġmanifest": 6562,
      "Ġfemale": 6563,
      "/???": 6564,
      "20": 6565,
      "Sounds": 6566,
      "ikely": 6567,
      "lo": 6568,
      "pre": 6569,
      "tr": 6570,
      "Ġtin": 6571,
      "Ġtatt": 6572,
      "Ġast": 6573,
      "Ġwizard": 6574,
      "Ġbra": 6575,
      "ero": 6576,
      "Ġfilling": 6577,
      "Ġcelest": 6578,
      "isc": 6579,
      "Ġdil": 6580,
      "Ġlamp": 6581,
      "Ġgor": 6582,
      "utting": 6583,
      "Ġnav": 6584,
      "Ġnumer": 6585,
      "Ġhist": 6586,
      "Ġsturd": 6587,
      "vell": 6588,
      "eted": 6589,
      "Ġyard": 6590,
      "Ġracial": 6591,
      "Ġfruits": 6592,
      "ĠSn": 6593,
      "ĠFang": 6594,
      "Ġupgr": 6595,
      "Ġintelligence": 6596,
      "venge": 6597,
      "Ġclut": 6598,
      "ĠEnt": 6599,
      "Ġsuitable": 6600,
      "Ġpros": 6601,
      "Ġsmashing": 6602,
      "Ġscared": 6603,
      "Ġpowerhouses": 6604,
      "Ġswings": 6605,
      "...\"": 6606,
      "erged": 6607,
      "arnage": 6608,
      "Ġbetray": 6609,
      "Ġcleans": 6610,
      "Ġglo": 6611,
      "Ġpartly": 6612,
      "Ġparties": 6613,
      "Ġinstance": 6614,
      "ĠAscension": 6615,
      "alem": 6616,
      "Ġresting": 6617,
      "Ġobst": 6618,
      "Ġpainful": 6619,
      "Ġfury": 6620,
      "Ġinterior": 6621,
      "ethon": 6622,
      "Ġgravity": 6623,
      "ccording": 6624,
      "Ġ60": 6625,
      "rifice": 6626,
      "Ġpirate": 6627,
      "Ġengine": 6628,
      "Probably": 6629,
      "Ġpunched": 6630,
      "Ġchannel": 6631,
      "ĠCrystal": 6632,
      "Ġtechniques": 6633,
      "Ġsuspicious": 6634,
      "Ġresponsibility": 6635,
      "slow": 6636,
      "Ġperformance": 6637,
      "Ġresponded": 6638,
      "Ġassassin": 6639,
      "ĠWarrior": 6640,
      "Ġpicture": 6641,
      "Ġacknowled": 6642,
      "Ġdefenses": 6643,
      "ĠGuardian": 6644,
      "Ġlungs": 6645,
      "ĠHoarh": 6646,
      "Ġfurniture": 6647,
      "Ġangrily": 6648,
      "ĠBrazla": 6649,
      "Ġafternoon": 6650,
      "bishop": 6651,
      "Sm": 6652,
      "Take": 6653,
      "bly": 6654,
      "fang": 6655,
      "hic": 6656,
      "point": 6657,
      "with": 6658,
      "ys": 6659,
      "Ġtug": 6660,
      "Ġain": 6661,
      "Ġfa": 6662,
      "Ġdu": 6663,
      "Ġducked": 6664,
      "Ġpause": 6665,
      "Ġpanting": 6666,
      "elentless": 6667,
      "utions": 6668,
      "leep": 6669,
      "Ġnaked": 6670,
      "Ġstomp": 6671,
      "Ġuh": 6672,
      "ĠHaving": 6673,
      "urry": 6674,
      "Ġripp": 6675,
      "Ġfrag": 6676,
      "usions": 6677,
      "ĠForm": 6678,
      "ĠFruit": 6679,
      "uned": 6680,
      "Ġblows": 6681,
      "Ġflin": 6682,
      "Ġflickered": 6683,
      "ĠLost": 6684,
      "Ġapparent": 6685,
      "Ġspending": 6686,
      "Ġgranted": 6687,
      "Ġglad": 6688,
      "ĠManash": 6689,
      "Ġsurely": 6690,
      "Ġemer": 6691,
      "Ġourselves": 6692,
      "Ġawake": 6693,
      "Ġinferior": 6694,
      "ictions": 6695,
      "Ġsupplies": 6696,
      "ounced": 6697,
      "Ġfellow": 6698,
      "Ġprotected": 6699,
      "Ġwindows": 6700,
      "Ġimproving": 6701,
      "Unique": 6702,
      "Ġsorts": 6703,
      "Ġpreparing": 6704,
      "Ġsunlight": 6705,
      "Ġescaped": 6706,
      "Ġrolling": 6707,
      "Ġcleaning": 6708,
      "Ġidentical": 6709,
      "Ġstaggered": 6710,
      "Ġambush": 6711,
      "Exactly": 6712,
      "ĠBlade": 6713,
      "Ġexhaust": 6714,
      "Ġcrawling": 6715,
      "Grimmar": 6716,
      "Ġconcentration": 6717,
      "Ġbulk": 6718,
      "ydel": 6719,
      "Ġvenom": 6720,
      "Ġ???/???": 6721,
      "Ġbracers": 6722,
      "ĠTenku": 6723,
      "Ġpurchase": 6724,
      "Ġenthus": 6725,
      "ĠProtector": 6726,
      "Ġtattoo": 6727,
      "%).": 6728,
      "45": 6729,
      "hood": 6730,
      "iber": 6731,
      "lin": 6732,
      "something": 6733,
      "ule": 6734,
      "Ġting": 6735,
      "Ġod": 6736,
      "Ġbrows": 6737,
      "asy": 6738,
      "Ġcounted": 6739,
      "Ġine": 6740,
      "ads": 6741,
      "Ġgrey": 6742,
      "Ġgives": 6743,
      "imated": 6744,
      "alate": 6745,
      "ether": 6746,
      "Ġripping": 6747,
      "Ġants": 6748,
      "Ġfrost": 6749,
      "Ġlift": 6750,
      "Ġshudd": 6751,
      "ussell": 6752,
      "ĠMe": 6753,
      "Ġspawn": 6754,
      "chor": 6755,
      "ĠWurm": 6756,
      "Ġdebris": 6757,
      "osition": 6758,
      "ĠRydel": 6759,
      "Ġtrace": 6760,
      "Ġtimer": 6761,
      "ĠDr": 6762,
      "Ġovert": 6763,
      "ĠGover": 6764,
      "Ġadventure": 6765,
      "Ġcontr": 6766,
      "Ġcontent": 6767,
      "Ġswarm": 6768,
      "Ġseek": 6769,
      "Ġteaching": 6770,
      "Ġincor": 6771,
      "Ġinches": 6772,
      "Ġsecurity": 6773,
      "beat": 6774,
      "Ġcrown": 6775,
      "Ġcrater": 6776,
      "Ġassoc": 6777,
      "Weak": 6778,
      "Ġcourage": 6779,
      "Ġcorrid": 6780,
      "Ġbiggest": 6781,
      "Ġpossibly": 6782,
      "Ġpoisonous": 6783,
      "Ġcrept": 6784,
      "Ġyear": 6785,
      "????": 6786,
      "Ġburied": 6787,
      "Ġcentre": 6788,
      "ĠArrow": 6789,
      "Ġnightm": 6790,
      "Ġships": 6791,
      "ĠTox": 6792,
      "Ġcolors": 6793,
      "alyzed": 6794,
      "Ġgirls": 6795,
      "Ġruins": 6796,
      "Ġdisappear": 6797,
      "Ġplayed": 6798,
      "Ġidentify": 6799,
      "Ġstruggling": 6800,
      "Ġpurpos": 6801,
      "Ġenjoying": 6802,
      "Ġpitch": 6803,
      "ĠRanks": 6804,
      "Ġpulse": 6805,
      "Ġskimmers": 6806,
      "Ġcaptured": 6807,
      "Ġestabl": 6808,
      "Ġcrawled": 6809,
      "ĠCreators": 6810,
      "Titles": 6811,
      "ĠThomas": 6812,
      "Ġfeathers": 6813,
      "Ġtongue": 6814,
      "Look": 6815,
      "Okay": 6816,
      "down": 6817,
      "uition": 6818,
      "vation": 6819,
      "wer": 6820,
      "Ġtapped": 6821,
      "Ġhang": 6822,
      "Ġhatchet": 6823,
      "Ġbrew": 6824,
      "Ġbaby": 6825,
      "ouder": 6826,
      "itution": 6827,
      "onest": 6828,
      "Ġfier": 6829,
      "Ġcust": 6830,
      "Ġlouder": 6831,
      "arted": 6832,
      "Ġgames": 6833,
      "idden": 6834,
      "acious": 6835,
      "imit": 6836,
      "Ġstumbling": 6837,
      "urther": 6838,
      "Ġwhir": 6839,
      "ĠSTR": 6840,
      "ĠAverage": 6841,
      "ilbert": 6842,
      "Ġshattering": 6843,
      "Ġupwards": 6844,
      "umans": 6845,
      "Ġnotes": 6846,
      "opefully": 6847,
      "ĠWatcher": 6848,
      "ĠTH": 6849,
      "ĠTown": 6850,
      "ĠTool": 6851,
      "ĠEspecially": 6852,
      "Ġknee": 6853,
      "ĠPur": 6854,
      "Ġflare": 6855,
      "urned": 6856,
      "Ġactively": 6857,
      "Ġbug": 6858,
      "Ġcrashing": 6859,
      "Ġbattles": 6860,
      "Ġfuriously": 6861,
      "Ġbadge": 6862,
      "Ġvisibly": 6863,
      "toise": 6864,
      "view": 6865,
      "Ġimb": 6866,
      "Ġsquee": 6867,
      "Analyze": 6868,
      "ĠBecause": 6869,
      "Ġdriving": 6870,
      "ĠHunt": 6871,
      "Ġtortoise": 6872,
      "Ġpractical": 6873,
      "Ġsuns": 6874,
      "ĠSomeone": 6875,
      "Ġsuspect": 6876,
      "Ġslamming": 6877,
      "Ġavoiding": 6878,
      "Ġvehic": 6879,
      "Ġoccur": 6880,
      "Ġdefeat": 6881,
      "Ġcasting": 6882,
      "Neil": 6883,
      "Everything": 6884,
      "Ġtechnique": 6885,
      "Ġdistracted": 6886,
      "Ġmanipulation": 6887,
      "Ġfleeing": 6888,
      "Ġvibrant": 6889,
      "ĠBrother": 6890,
      "Ġdescended": 6891,
      "Ġinhab": 6892,
      "Ġunderground": 6893,
      "Ġstairwell": 6894,
      "Ġmedium": 6895,
      "Ġdaily": 6896,
      "Ġinherit": 6897,
      "Ġelectric": 6898,
      "Ġawarded": 6899,
      ".]": 6900,
      "hary": 6901,
      "ik": 6902,
      "no": 6903,
      "oided": 6904,
      "Ġsym": 6905,
      "eded": 6906,
      "Ġhate": 6907,
      "Ġfer": 6908,
      "Ġfiring": 6909,
      "asks": 6910,
      "Ġdin": 6911,
      "Ġlacked": 6912,
      "Ġlacking": 6913,
      "Ġpad": 6914,
      "Ġgently": 6915,
      "owly": 6916,
      "ental": 6917,
      "Ġhaw": 6918,
      "Ġlifting": 6919,
      "ĠAm": 6920,
      "ĠAugur": 6921,
      "Ġshr": 6922,
      "ĠMark": 6923,
      "Ġjack": 6924,
      "Ġdoom": 6925,
      "Ġdove": 6926,
      "ĠToughness": 6927,
      "ĠBorn": 6928,
      "rab": 6929,
      "Ġchir": 6930,
      "Ġquintessence": 6931,
      "Ġknock": 6932,
      "Ġworries": 6933,
      "ĠPurity": 6934,
      "ĠDet": 6935,
      "ĠNest": 6936,
      "ĠNicholas": 6937,
      "ĠOut": 6938,
      "Ġplacing": 6939,
      "Ġdownward": 6940,
      "ivate": 6941,
      "Ġprin": 6942,
      "Ġpride": 6943,
      "Ġgritted": 6944,
      "ĠStand": 6945,
      "Ġglancing": 6946,
      "Ġends": 6947,
      "neath": 6948,
      "Ġrecovered": 6949,
      "Ġrecover": 6950,
      "ĠKnowledge": 6951,
      "Ġobl": 6952,
      "Ġhandsome": 6953,
      "Ġregister": 6954,
      "Ġplanets": 6955,
      "Ġrankers": 6956,
      "Ġhunter": 6957,
      "combat": 6958,
      "Ġstraightfor": 6959,
      "Ġavoided": 6960,
      "azor": 6961,
      "ĠAlbert": 6962,
      "Ġrefres": 6963,
      "pective": 6964,
      "Ġpositive": 6965,
      "Ġclothing": 6966,
      "Ġrelease": 6967,
      "Ġarchery": 6968,
      "Ġtesting": 6969,
      "Ġportion": 6970,
      "Ġdepths": 6971,
      "Ġpanel": 6972,
      "Ġlooted": 6973,
      "Ġcasually": 6974,
      "Ġenjoy": 6975,
      "Ġdissip": 6976,
      "Ġterritory": 6977,
      "Ġrevealing": 6978,
      "Spirit": 6979,
      "Ġincredible": 6980,
      "Ġgrimace": 6981,
      "Ġestate": 6982,
      "Ġgoddamn": 6983,
      "Ġinscriptions": 6984,
      "Ġconcentrated": 6985,
      "Ġnervously": 6986,
      "Ġcolours": 6987,
      "Ġeyebrow": 6988,
      "Ġridiculous": 6989,
      "ĠSuper": 6990,
      "Ġvague": 6991,
      "Ġswirling": 6992,
      "reshold": 6993,
      "Ġcharacter": 6994,
      "Ġhyp": 6995,
      "ĠDustin": 6996,
      "Corrosive": 6997,
      "Ġclenched": 6998,
      "Hello": 6999,
      "shaped": 7000,
      "Ġopinion": 7001,
      "ĠGovernment": 7002,
      "*:": 7003,
      "35": 7004,
      "cass": 7005,
      "lined": 7006,
      "lines": 7007,
      "tier": 7008,
      "ux": 7009,
      "Ġtip": 7010,
      "Ġwary": 7011,
      "Ġbark": 7012,
      "Ġcu": 7013,
      "Ġcared": 7014,
      "encing": 7015,
      "Ġdirty": 7016,
      "Ġhero": 7017,
      "Ġlaughter": 7018,
      "omination": 7019,
      "utation": 7020,
      "stant": 7021,
      "Ġbeard": 7022,
      "Ġreacted": 7023,
      "Ġyouth": 7024,
      "cting": 7025,
      "ĠAff": 7026,
      "antages": 7027,
      "ĠMay": 7028,
      "Ġspoken": 7029,
      "chard": 7030,
      "uster": 7031,
      "ĠBlessing": 7032,
      "ĠEarly": 7033,
      "Ġknocking": 7034,
      "Ġenchanted": 7035,
      "ĠOur": 7036,
      "arest": 7037,
      "Ġunfortunately": 7038,
      "ĠLess": 7039,
      "artial": 7040,
      "Ġpeace": 7041,
      "Ġade": 7042,
      "Ġadding": 7043,
      "Ġattract": 7044,
      "Ġprevent": 7045,
      "fusing": 7046,
      "Ġacted": 7047,
      "Ġpromp": 7048,
      "ĠClaire": 7049,
      "Ġelev": 7050,
      "Ġfinishing": 7051,
      "Ġhuff": 7052,
      "Ġrecru": 7053,
      "ailed": 7054,
      "Ġeffectively": 7055,
      "Ġformation": 7056,
      "Ġimmort": 7057,
      "ĠAdventurer": 7058,
      "mentson": 7059,
      "shif": 7060,
      "holy": 7061,
      "Ġcarcass": 7062,
      "ursion": 7063,
      "Ġmessages": 7064,
      "Ġdeliver": 7065,
      "Ġequally": 7066,
      "Ġheartbeat": 7067,
      "Ġreplen": 7068,
      "Ġemerging": 7069,
      "Ġcountless": 7070,
      "Ġsurvival": 7071,
      "Ġpaying": 7072,
      "Ġsuffering": 7073,
      "anguine": 7074,
      "Ġjudging": 7075,
      "ĠTitles": 7076,
      "Ġnorth": 7077,
      "Ġcompanions": 7078,
      "Ġpleasure": 7079,
      "ruptly": 7080,
      "Ġscouting": 7081,
      "Ġregarded": 7082,
      "Ġtransformed": 7083,
      "Ġstudy": 7084,
      "Ġfoes": 7085,
      "Ġrubbed": 7086,
      "Ġauthority": 7087,
      "Ġmeasure": 7088,
      "Ġvictory": 7089,
      "Ġcontinuously": 7090,
      "Ġcommunication": 7091,
      "Ġfolk": 7092,
      "abyrin": 7093,
      "Ġaccurate": 7094,
      "Ġswirled": 7095,
      "warf": 7096,
      "Ġwritten": 7097,
      "Ġsteadily": 7098,
      "Ġdiamond": 7099,
      "Ġsprawling": 7100,
      "Ġconvinced": 7101,
      "Ġmargolls": 7102,
      "ĠBadger": 7103,
      "Ġstreng": 7104,
      "Ġnumerous": 7105,
      "alemaw": 7106,
      "30": 7107,
      "Damn": 7108,
      "ES": 7109,
      "ians": 7110,
      "uper": 7111,
      "Ġsem": 7112,
      "Ġharsh": 7113,
      "Ġbent": 7114,
      "Ġfed": 7115,
      "athed": 7116,
      "Ġmattered": 7117,
      "Ġmartial": 7118,
      "Ġhed": 7119,
      "Ġlab": 7120,
      "Ġlav": 7121,
      "Ġpacks": 7122,
      "esome": 7123,
      "Ġinqu": 7124,
      "iders": 7125,
      "stand": 7126,
      "Ġstench": 7127,
      "urpr": 7128,
      "Ġrow": 7129,
      "Ġrif": 7130,
      "Ġrig": 7131,
      "Ġrazor": 7132,
      "ĠSuddenly": 7133,
      "agers": 7134,
      "Ġintuition": 7135,
      "Ġspr": 7136,
      "Ġspider": 7137,
      "ĠBreak": 7138,
      "ĠBastion": 7139,
      "Ġchase": 7140,
      "Ġchasing": 7141,
      "ĠRyan": 7142,
      "Ġblo": 7143,
      "Ġblame": 7144,
      "Ġtrunk": 7145,
      "Ġsheen": 7146,
      "ours": 7147,
      "Ġflaring": 7148,
      "Ġunst": 7149,
      "ĠLong": 7150,
      "Ġoffering": 7151,
      "Ġscent": 7152,
      "Ġcompound": 7153,
      "ormally": 7154,
      "Ġincident": 7155,
      "Ġbrill": 7156,
      "Ġgrade": 7157,
      "ĠClan": 7158,
      "Ġhasn": 7159,
      "Ġhelm": 7160,
      "ĠSkin": 7161,
      "Ġperspective": 7162,
      "Ġdoorway": 7163,
      "Ġindic": 7164,
      "Ġhurled": 7165,
      "azer": 7166,
      "Ġarriving": 7167,
      "Ġlowest": 7168,
      "hysical": 7169,
      "Ġmuster": 7170,
      "Ġbreaths": 7171,
      "Ġlistening": 7172,
      "Ġfailure": 7173,
      "Ġrecognise": 7174,
      "Ġrecognised": 7175,
      "Ġequal": 7176,
      "Ġidentified": 7177,
      "Ġengra": 7178,
      "Ġarchbishop": 7179,
      "Ġdissolved": 7180,
      "Ġunlocked": 7181,
      "Ġaiming": 7182,
      "Ġcrackling": 7183,
      "Ġoperation": 7184,
      "Ġdifficulty": 7185,
      "Ġindividuals": 7186,
      "Ġfoe": 7187,
      "Ġpreviously": 7188,
      "Ġmajor": 7189,
      "Ġfrozen": 7190,
      "ĠDisc": 7191,
      "ĠDiscer": 7192,
      "uinely": 7193,
      "ĠHarmon": 7194,
      "Ġcopy": 7195,
      "Ġoccasional": 7196,
      "Ġcamper": 7197,
      "Ġsizzling": 7198,
      "Ġcreepy": 7199,
      "Despite": 7200,
      "Ġmantis": 7201,
      "Ġconsciousness": 7202,
      "Ġdisappointment": 7203,
      "onestly": 7204,
      "abyrinth": 7205,
      "AL": 7206,
      "Ambitious": 7207,
      "Eye": 7208,
      "Fine": 7209,
      "Font": 7210,
      "Holy": 7211,
      "Pain": 7212,
      "Res": 7213,
      "green": 7214,
      "his": 7215,
      "iosity": 7216,
      "Ġhast": 7217,
      "âĢĵ": 7218,
      "Ġbesides": 7219,
      "inging": 7220,
      "itation": 7221,
      "Ġlined": 7222,
      "arant": 7223,
      "arry": 7224,
      "Ġthread": 7225,
      "idance": 7226,
      "icious": 7227,
      "lders": 7228,
      "otox": 7229,
      "eting": 7230,
      "Ġrevel": 7231,
      "Ġraced": 7232,
      "ores": 7233,
      "Ġlikes": 7234,
      "Ġlibr": 7235,
      "ĠFrost": 7236,
      "umable": 7237,
      "Ġconver": 7238,
      "ĠTime": 7239,
      "Ġmanor": 7240,
      "Ġdeg": 7241,
      "Ġvorger": 7242,
      "Ġmeal": 7243,
      "ĠRussell": 7244,
      "Ġenvelop": 7245,
      "Ġblinding": 7246,
      "ista": 7247,
      "Ġbackwards": 7248,
      "ĠPlease": 7249,
      "Ġsuite": 7250,
      "Ġsuck": 7251,
      "ortium": 7252,
      "Ġflung": 7253,
      "Ġuses": 7254,
      "Ġfighters": 7255,
      "Ġdarker": 7256,
      "Ġending": 7257,
      "Ġmighty": 7258,
      "ĠNext": 7259,
      "Ġclosely": 7260,
      "Ġpainting": 7261,
      "Ġtalent": 7262,
      "Ġfriendly": 7263,
      "Ġserved": 7264,
      "ouncil": 7265,
      "Ġsubtle": 7266,
      "Ġadvantages": 7267,
      "Ġbarge": 7268,
      "ĠAlpha": 7269,
      "ungle": 7270,
      "uffed": 7271,
      "Ġapocalypse": 7272,
      "Ġmatters": 7273,
      "Unfortunately": 7274,
      "Ġguys": 7275,
      "Ġtorrent": 7276,
      "Ġholy": 7277,
      "Ġratman": 7278,
      "ĠTrue": 7279,
      "Ġsuffer": 7280,
      "Ġconsiderable": 7281,
      "Ġtentacles": 7282,
      "Ġmortals": 7283,
      "Ġgrimaced": 7284,
      "Ġsadly": 7285,
      "Ġshimmered": 7286,
      "Ġgenuinely": 7287,
      "ĠDuke": 7288,
      "ĠPatron": 7289,
      "Ġpursuit": 7290,
      "Ġfrustration": 7291,
      "Ġembarrassed": 7292,
      "Ġunwilling": 7293,
      "Acid": 7294,
      "Ġthoroughly": 7295,
      "wakening": 7296,
      "Ġfreedom": 7297,
      "Ġfalse": 7298,
      "Ġfisherman": 7299,
      "Ġlizard": 7300,
      "Ġcontempl": 7301,
      "Ġfundament": 7302,
      "Ġembedded": 7303,
      "Ġnavig": 7304,
      "Ġhistory": 7305,
      "Call": 7306,
      "Lit": 7307,
      "Mon": 7308,
      "Part": 7309,
      "XP": 7310,
      "bel": 7311,
      "cony": 7312,
      "five": 7313,
      "hal": 7314,
      "mored": 7315,
      "vest": 7316,
      "Ġakin": 7317,
      "Ġomin": 7318,
      "atisf": 7319,
      "Ġmale": 7320,
      "Ġthunder": 7321,
      "otted": 7322,
      "Ġasleep": 7323,
      "Ġrevenge": 7324,
      "ĠHand": 7325,
      "Ġrailing": 7326,
      "emere": 7327,
      "Ġsevent": 7328,
      "umn": 7329,
      "Ġjoke": 7330,
      "ĠCould": 7331,
      "Ġchin": 7332,
      "Ġchunks": 7333,
      "Ġvig": 7334,
      "Ġens": 7335,
      "Ġtruck": 7336,
      "olate": 7337,
      "Ġwhoever": 7338,
      "Ġunpleas": 7339,
      "Ġslab": 7340,
      "plitting": 7341,
      "Ġprecious": 7342,
      "mean": 7343,
      "Three": 7344,
      "Thadwick": 7345,
      "Ġcracking": 7346,
      "Ġmagically": 7347,
      "Ġemitted": 7348,
      "Ġinflu": 7349,
      "ifications": 7350,
      "Ġintercept": 7351,
      "Ġcuts": 7352,
      "Ġpersonally": 7353,
      "Ġfireball": 7354,
      "Ġevidence": 7355,
      "Ġreasonable": 7356,
      "Ġsurviving": 7357,
      "Ġdiscover": 7358,
      "Ġcollection": 7359,
      "Ġmouthful": 7360,
      "Ġimages": 7361,
      "Ġsubdu": 7362,
      "Ġevolving": 7363,
      "Ġdisappearing": 7364,
      "Ġchallenges": 7365,
      "Ġmusic": 7366,
      "Ġoddly": 7367,
      "Ġbalcony": 7368,
      "Ġinjected": 7369,
      "Profession": 7370,
      "ĠExcept": 7371,
      "Ġpiercing": 7372,
      "ĠSmall": 7373,
      "Ġretreated": 7374,
      "Ġbelly": 7375,
      "Ġdisgusting": 7376,
      "ĠClementson": 7377,
      "Ġboulder": 7378,
      "Ġmagn": 7379,
      "Ġhorizont": 7380,
      "Ġvicinity": 7381,
      "Ġunleashed": 7382,
      "lemental": 7383,
      "Ġexchange": 7384,
      "Ġfaith": 7385,
      "Ġnightmare": 7386,
      "Ġstraightforward": 7387,
      "FI": 7388,
      "Richard": 7389,
      "RPG": 7390,
      "SP": 7391,
      "__": 7392,
      "gling": 7393,
      "lasting": 7394,
      "tained": 7395,
      "uely": 7396,
      "Ġtables": 7397,
      "Ġbath": 7398,
      "erve": 7399,
      "Ġfet": 7400,
      "Ġfren": 7401,
      "Ġcough": 7402,
      "Ġcart": 7403,
      "ensely": 7404,
      "Ġmak": 7405,
      "Ġlunch": 7406,
      "anning": 7407,
      "Ġthus": 7408,
      "Ġthorn": 7409,
      "Ġpanted": 7410,
      "acity": 7411,
      "sters": 7412,
      "Ġna": 7413,
      "Ġnerves": 7414,
      "ĠII": 7415,
      "Ġwhom": 7416,
      "Ġfrank": 7417,
      "ĠAmbitious": 7418,
      "Ġleap": 7419,
      "ĠMystic": 7420,
      "Ġjoint": 7421,
      "Ġjoy": 7422,
      "ĠCom": 7423,
      "ĠCaptain": 7424,
      "ĠWol": 7425,
      "Ġqueen": 7426,
      "Ġenchant": 7427,
      "Ġcomment": 7428,
      "ĠPact": 7429,
      "Ġproficiency": 7430,
      "Ġscoff": 7431,
      "Ġmonks": 7432,
      "Ġswipe": 7433,
      "Ġsurre": 7434,
      "Ġentity": 7435,
      "Ġbund": 7436,
      "Ġhelps": 7437,
      "ĠInst": 7438,
      "Ġattackers": 7439,
      "Ġexplaining": 7440,
      "Ġassigned": 7441,
      "ĠUsing": 7442,
      "ĠWhalemaw": 7443,
      "Ġhits": 7444,
      "ocused": 7445,
      "ĠReach": 7446,
      "Ġconfront": 7447,
      "Ġdiscus": 7448,
      "Reward": 7449,
      "Ġdestiny": 7450,
      "Should": 7451,
      "Ġslept": 7452,
      "ĠGellers": 7453,
      "Ġcomplain": 7454,
      "Ġdescribe": 7455,
      "covery": 7456,
      "Ġillum": 7457,
      "Ġcountry": 7458,
      "Ġproduced": 7459,
      "boat": 7460,
      "ĠApparently": 7461,
      "Ġtraveled": 7462,
      "Ġmurder": 7463,
      "Ġjudgement": 7464,
      "Ġcrafts": 7465,
      "Ġregarding": 7466,
      "Ġconvince": 7467,
      "Ġabsolute": 7468,
      "Ġinscribed": 7469,
      "Ġbullet": 7470,
      "Ġcontinuing": 7471,
      "ĠTrait": 7472,
      "Vessilia": 7473,
      "Ġsacrifice": 7474,
      "Ġdistraction": 7475,
      "Ġweavers": 7476,
      "Ġautom": 7477,
      "onderment": 7478,
      "Ġkilomet": 7479,
      "Ġexhaustion": 7480,
      "Weakness": 7481,
      "Ġlava": 7482,
      "ĠDiscernment": 7483,
      "Each": 7484,
      "VE": 7485,
      "cum": 7486,
      "ease": 7487,
      "father": 7488,
      "friend": 7489,
      "lass": 7490,
      "made": 7491,
      "rown": 7492,
      "sided": 7493,
      "uing": 7494,
      "vol": 7495,
      "vice": 7496,
      "ymean": 7497,
      "Ġtipped": 7498,
      "Ġwel": 7499,
      "ouched": 7500,
      "erc": 7501,
      "oning": 7502,
      "Ġfish": 7503,
      "Ġmim": 7504,
      "Ġmused": 7505,
      "Ġlod": 7506,
      "Ġpark": 7507,
      "Ġpiss": 7508,
      "oward": 7509,
      "star": 7510,
      "stones": 7511,
      "standing": 7512,
      "leeding": 7513,
      "imate": 7514,
      "Ġrever": 7515,
      "ĠHatchetman": 7516,
      "Ġrows": 7517,
      "Ġwhip": 7518,
      "ammed": 7519,
      "ĠSense": 7520,
      "ummon": 7521,
      "Ġnearest": 7522,
      "Ġabomination": 7523,
      "Ġspine": 7524,
      "ĠTake": 7525,
      "Ġvulnerable": 7526,
      "ĠRed": 7527,
      "Ġenr": 7528,
      "ĠPower": 7529,
      "Ġsuit": 7530,
      "ĠOmen": 7531,
      "arer": 7532,
      "Ġunne": 7533,
      "vings": 7534,
      "ĠLabyrinth": 7535,
      "Ġattend": 7536,
      "Ġdisl": 7537,
      "Ġgotta": 7538,
      "Ġimprint": 7539,
      "Ġbru": 7540,
      "Ġprick": 7541,
      "Ġgrad": 7542,
      "Ġresisted": 7543,
      "Ġbodygu": 7544,
      "Ġremove": 7545,
      "Ġelves": 7546,
      "Ġhug": 7547,
      "Ġcrude": 7548,
      "Ġdecap": 7549,
      "Ġcuriosity": 7550,
      "Ġawesome": 7551,
      "Ġretorted": 7552,
      "Ġdrank": 7553,
      "Ġfollowers": 7554,
      "Ġnevertheless": 7555,
      "Ġmayor": 7556,
      "ĠReign": 7557,
      "Ġcrafted": 7558,
      "Ġdeflect": 7559,
      "Ġstarts": 7560,
      "Ġterms": 7561,
      "Ġdriven": 7562,
      "rative": 7563,
      "Ġzero": 7564,
      "Ġlistened": 7565,
      "Also": 7566,
      "Ġpleased": 7567,
      "Ġreleasing": 7568,
      "ĠConference": 7569,
      "ĠDoes": 7570,
      "Ġsmelled": 7571,
      "ĠMyriad": 7572,
      "Ġutil": 7573,
      "Ġsoftly": 7574,
      "Ġballista": 7575,
      "related": 7576,
      "Ġsuccessfully": 7577,
      "Ġattempts": 7578,
      "Ġbirds": 7579,
      "Ġinnoc": 7580,
      "Ġgenu": 7581,
      "Ġsuspicion": 7582,
      "Ġpenetrated": 7583,
      "Ġeyebrows": 7584,
      "Ġhungry": 7585,
      "Ġlockbo": 7586,
      "Ġvert": 7587,
      "Ġreluctantly": 7588,
      "Ġdepending": 7589,
      "Ġcritical": 7590,
      "Ġconnections": 7591,
      "ĠRoger": 7592,
      "Ġscratch": 7593,
      "Ġfirmly": 7594,
      "Ġdurable": 7595,
      "Ġintricate": 7596,
      "Ġvideo": 7597,
      "Ġmonstrosity": 7598,
      "Ġgorge": 7599,
      "ĠManaship": 7600,
      "Ġodds": 7601,
      "ĠToxin": 7602,
      "Ġsubdued": 7603,
      "Ġfrankly": 7604,
      "14": 7605,
      "Ess": 7606,
      "Getting": 7607,
      "Night": 7608,
      "Nice": 7609,
      "ON": 7610,
      "Ver": 7611,
      "ech": 7612,
      "lim": 7613,
      "mod": 7614,
      "pass": 7615,
      "sually": 7616,
      "there": 7617,
      "uous": 7618,
      "ww": 7619,
      "wy": 7620,
      "zak": 7621,
      "inities": 7622,
      "Ġsinking": 7623,
      "eds": 7624,
      "Ġhal": 7625,
      "Ġhint": 7626,
      "Ġbord": 7627,
      "Ġfasc": 7628,
      "Ġlisted": 7629,
      "Ġlux": 7630,
      "Ġpact": 7631,
      "Ġinch": 7632,
      "Ġgig": 7633,
      "eline": 7634,
      "acon": 7635,
      "iry": 7636,
      "allic": 7637,
      "ĠThea": 7638,
      "agement": 7639,
      "ĠMo": 7640,
      "ĠMose": 7641,
      "Ġintr": 7642,
      "Ġcondu": 7643,
      "Ġjaws": 7644,
      "Ġblazing": 7645,
      "ĠNature": 7646,
      "ĠGo": 7647,
      "ĠGain": 7648,
      "Ġrole": 7649,
      "Ġguarant": 7650,
      "Ġfighter": 7651,
      "Ġwhereas": 7652,
      "Ġelder": 7653,
      "ignment": 7654,
      "Ġunderneath": 7655,
      "ĠInside": 7656,
      "Ġrecords": 7657,
      "Ġhealers": 7658,
      "ielded": 7659,
      "Ġsniff": 7660,
      "Ġsnatched": 7661,
      "Ġdemonic": 7662,
      "Ġdraining": 7663,
      "Ġlegacy": 7664,
      "Ġdirected": 7665,
      "retched": 7666,
      "Ġmaintain": 7667,
      "Ġlandscape": 7668,
      "Ġhesitant": 7669,
      "Ġrequest": 7670,
      "unny": 7671,
      "Ġproperty": 7672,
      "Ġreputation": 7673,
      "Ġsumm": 7674,
      "Ġtransl": 7675,
      "Ġcenturies": 7676,
      "Ġmarble": 7677,
      "Ġjoining": 7678,
      "Ġuncertain": 7679,
      "Ġfunctions": 7680,
      "ĠĠĠ": 7681,
      "Ġreplied": 7682,
      "ternity": 7683,
      "Expl": 7684,
      "Ġconjure": 7685,
      "ĠDefe": 7686,
      "Ġregenerate": 7687,
      "ĠTeine": 7688,
      "ĠTechn": 7689,
      "ltimate": 7690,
      "Ġsmoothly": 7691,
      "Ġauthor": 7692,
      "aggie": 7693,
      "Ġicy": 7694,
      "Ġsparks": 7695,
      "Ġtactic": 7696,
      "inetic": 7697,
      "Ġseparated": 7698,
      "consumable": 7699,
      "ĠVenomfang": 7700,
      "ĠEverlasting": 7701,
      "Ġshuddered": 7702,
      "urthermore": 7703,
      "Ġhawk": 7704,
      "Ġgenuine": 7705,
      ")!": 7706,
      "34": 7707,
      "Awakening": 7708,
      "Hold": 7709,
      "aa": 7710,
      "band": 7711,
      "gold": 7712,
      "taining": 7713,
      "vi": 7714,
      "yed": 7715,
      "Ġtucked": 7716,
      "inite": 7717,
      "Ġsong": 7718,
      "Ġsank": 7719,
      "Ġhat": 7720,
      "Ġhus": 7721,
      "Ġhovering": 7722,
      "Ġbrow": 7723,
      "Ġduration": 7724,
      "Ġlashed": 7725,
      "anking": 7726,
      "Ġpsy": 7727,
      "ora": 7728,
      "ork": 7729,
      "Ġgem": 7730,
      "Ġease": 7731,
      "imos": 7732,
      "Ġstal": 7733,
      "ĠSe": 7734,
      "Ġleon": 7735,
      "Ġkarm": 7736,
      "hings": 7737,
      "umes": 7738,
      "Ġnecrotic": 7739,
      "Ġspas": 7740,
      "ĠCult": 7741,
      "ĠTaking": 7742,
      "ivered": 7743,
      "Ġchased": 7744,
      "Ġvantage": 7745,
      "ĠEcho": 7746,
      "Ġquarter": 7747,
      "ĠRight": 7748,
      "Ġgoals": 7749,
      "ĠDemon": 7750,
      "olored": 7751,
      "Ġsuited": 7752,
      "ĠNymean": 7753,
      "Ġsmith": 7754,
      "Ġdisrupt": 7755,
      "Ġskilled": 7756,
      "Ġmudd": 7757,
      "ventually": 7758,
      "Ġincomp": 7759,
      "Ġbrut": 7760,
      "Ġbits": 7761,
      "ĠThrough": 7762,
      "rences": 7763,
      "Ġguidance": 7764,
      "Ġsecure": 7765,
      "Ġexpanding": 7766,
      "amped": 7767,
      "ĠNecrotic": 7768,
      "Ġ27": 7769,
      "Ġcourt": 7770,
      "ficial": 7771,
      "Ġmines": 7772,
      "Ġbatch": 7773,
      "Influence": 7774,
      "Ġslightest": 7775,
      "Ġwrist": 7776,
      "Ġgrowl": 7777,
      "Ġlocals": 7778,
      "Ġcollar": 7779,
      "Ġvariety": 7780,
      "ribution": 7781,
      "Rezak": 7782,
      "Ġforests": 7783,
      "Ġraise": 7784,
      "eshift": 7785,
      "Ġproviding": 7786,
      "Ġalchemists": 7787,
      "Ġworthy": 7788,
      "Ġescaping": 7789,
      "Ġrule": 7790,
      "Ġtroubles": 7791,
      "Ġsigils": 7792,
      "Ġchambers": 7793,
      "Ġvillagers": 7794,
      "Ġnoticeable": 7795,
      "Ġsandw": 7796,
      "affinity": 7797,
      "ĠEssences": 7798,
      "Ġdepart": 7799,
      "Legendary": 7800,
      "Ġtrusted": 7801,
      "Ġtraveling": 7802,
      "Ġmurm": 7803,
      "Ġgesture": 7804,
      "Ġscratches": 7805,
      "Ġmotes": 7806,
      "ĠOtherwise": 7807,
      "ĠDuFont": 7808,
      "Ġtactics": 7809,
      "Ġvaguely": 7810,
      "Ġbelonged": 7811,
      "Ġconditions": 7812,
      "Ġrepeatedly": 7813,
      "ĠĠĠĠĠĠĠ": 7814,
      "Ġdiagram": 7815,
      "Ġpreparations": 7816,
      "Ġremnants": 7817,
      "Ġindenture": 7818,
      "Ġdominated": 7819,
      "Ġvessel": 7820,
      "Ġtrigger": 7821,
      "Ġinevitable": 7822,
      "Ġabandoned": 7823,
      "Ġribs": 7824,
      "Ġcomprehe": 7825,
      "Ġcandid": 7826,
      "ĠHoarhound": 7827,
      "Ġcustom": 7828,
      "ĠAffinity": 7829,
      "Ġmakeshift": 7830,
      "Axe": 7831,
      "Cle": 7832,
      "Moving": 7833,
      "None": 7834,
      "Rep": 7835,
      "Relentless": 7836,
      "aved": 7837,
      "eared": 7838,
      "hil": 7839,
      "life": 7840,
      "pir": 7841,
      "rack": 7842,
      "spe": 7843,
      "Ġtap": 7844,
      "Ġbump": 7845,
      "erved": 7846,
      "itter": 7847,
      "Ġfading": 7848,
      "ndless": 7849,
      "Ġmast": 7850,
      "Ġlately": 7851,
      "Ġloyal": 7852,
      "aries": 7853,
      "Ġthreshold": 7854,
      "Ġprow": 7855,
      "orable": 7856,
      "adma": 7857,
      "Ġgul": 7858,
      "stairs": 7859,
      "imbing": 7860,
      "Ġbeating": 7861,
      "Ġhissed": 7862,
      "ĠImp": 7863,
      "Ġwithd": 7864,
      "Ġanx": 7865,
      "Ġouts": 7866,
      "ĠFar": 7867,
      "Ġsprin": 7868,
      "Ġconqu": 7869,
      "Ġfeast": 7870,
      "iege": 7871,
      "Ġchains": 7872,
      "Ġdeb": 7873,
      "ĠElemental": 7874,
      "Ġworn": 7875,
      "Ġarrog": 7876,
      "Ġbackground": 7877,
      "ĠPotion": 7878,
      "olt": 7879,
      "Ġplates": 7880,
      "ĠGetting": 7881,
      "ĠLow": 7882,
      "ĠValk": 7883,
      "Ġafterward": 7884,
      "ipulation": 7885,
      "izzy": 7886,
      "Ġsurve": 7887,
      "Ġcompar": 7888,
      "Ġimpaled": 7889,
      "Ġtea": 7890,
      "Ġbrings": 7891,
      "Ġbitter": 7892,
      "Ġproof": 7893,
      "ĠThayer": 7894,
      "udged": 7895,
      "Ġbecomes": 7896,
      "âĢĶâĢĿ": 7897,
      "Ġeliminate": 7898,
      "Ġfeelings": 7899,
      "immed": 7900,
      "Ġexpend": 7901,
      "Ġdarkened": 7902,
      "nex": 7903,
      "Ġembr": 7904,
      "Ġrecent": 7905,
      "Ġassistance": 7906,
      "Ġcorrupted": 7907,
      "Ġaccel": 7908,
      "Ġaccount": 7909,
      "Ġregist": 7910,
      "Ġpurifier": 7911,
      "chemical": 7912,
      "Ġranking": 7913,
      "Ġcaves": 7914,
      "Ġtremend": 7915,
      "Ġdrive": 7916,
      "Ġsentence": 7917,
      "Ġdelicate": 7918,
      "Ġpressing": 7919,
      "Ġcoast": 7920,
      "ĠBloodlines": 7921,
      "Ġtablet": 7922,
      "Ġtowering": 7923,
      "Ġrarely": 7924,
      "Ġstabil": 7925,
      "Ġstabbing": 7926,
      "Ġexplode": 7927,
      "Ġpanicked": 7928,
      "Ġmarket": 7929,
      "Prodigious": 7930,
      "ĠDesolation": 7931,
      "black": 7932,
      "ĠCorrosive": 7933,
      "Ġplatforms": 7934,
      "Ġordered": 7935,
      "Ġstretch": 7936,
      "Ġreveal": 7937,
      "Ġjudge": 7938,
      "Someone": 7939,
      "Ġfortress": 7940,
      "speth": 7941,
      "Ġaccommod": 7942,
      "Ġofficials": 7943,
      "Ġopponents": 7944,
      "Ġacquired": 7945,
      "Ġboulders": 7946,
      "Ġaccomplish": 7947,
      "Ġhelplessly": 7948,
      "Ġoverwhelmed": 7949,
      "irector": 7950,
      "Ġneatly": 7951,
      "Ġflickering": 7952,
      "ĠLandemere": 7953,
      "Ġamplified": 7954,
      "Ġfluid": 7955,
      "Ġacknowledged": 7956,
      "Ġcorridor": 7957,
      "ĠStandish": 7958,
      "Ġcube": 7959,
      "Ġlibrary": 7960,
      "ĠValky": 7961,
      "Back": 7962,
      "Bateo": 7963,
      "Blessing": 7964,
      "Four": 7965,
      "Go": 7966,
      "Other": 7967,
      "Power": 7968,
      "Trap": 7969,
      "Using": 7970,
      "cond": 7971,
      "fast": 7972,
      "rant": 7973,
      "Ġtested": 7974,
      "Ġtasks": 7975,
      "inte": 7976,
      "rer": 7977,
      "Ġhind": 7978,
      "Ġbars": 7979,
      "oup": 7980,
      "nds": 7981,
      "Ġlad": 7982,
      "Ġlush": 7983,
      "arious": 7984,
      "arters": 7985,
      "Ġpig": 7986,
      "oracious": 7987,
      "Ġgar": 7988,
      "imid": 7989,
      "imal": 7990,
      "Ġnic": 7991,
      "Ġrod": 7992,
      "Ġwhipped": 7993,
      "amiliar": 7994,
      "ĠSure": 7995,
      "ĠSecond": 7996,
      "Ġshade": 7997,
      "Ġleaf": 7998,
      "Ġoutfit": 7999,
      "Ġseal": 8000,
      "Ġkicking": 8001,
      "chan": 8002,
      "Ġconcl": 8003,
      "Ġexec": 8004,
      "ĠBronze": 8005,
      "Ġsoil": 8006,
      "ĠRim": 8007,
      "ĠPast": 8008,
      "ĠGet": 8009,
      "ĠGiants": 8010,
      "Ġusers": 8011,
      "Ġscor": 8012,
      "Ġpeered": 8013,
      "Ġmuff": 8014,
      "Ġneedles": 8015,
      "Ġgrate": 8016,
      "Ġresolve": 8017,
      "Ġglances": 8018,
      "Ġundert": 8019,
      "Ġcrime": 8020,
      "Ġthinks": 8021,
      "obby": 8022,
      "ĠUnd": 8023,
      "Ġreliable": 8024,
      "Ġsnap": 8025,
      "Ġdrown": 8026,
      "Ġsteal": 8027,
      "Ġvisiting": 8028,
      "ĠShield": 8029,
      "Ġideas": 8030,
      "Ġinspected": 8031,
      "Ġserve": 8032,
      "Ġwriting": 8033,
      "Ġabsence": 8034,
      "Ġabsently": 8035,
      "Ġconfluence": 8036,
      "Ġcircles": 8037,
      "ĠUnless": 8038,
      "ĠUnbound": 8039,
      "Ġencour": 8040,
      "Ġmarvel": 8041,
      "Ġyounger": 8042,
      "Ġsplin": 8043,
      "Ġsplitting": 8044,
      "Ġcolumn": 8045,
      "Alchemist": 8046,
      "Ġworthwhile": 8047,
      "Ġspecialist": 8048,
      "Ġrisks": 8049,
      "Ġsources": 8050,
      "Ġrapt": 8051,
      "Ġbalanced": 8052,
      "Ġimprovement": 8053,
      "Ġbleed": 8054,
      "Ġloved": 8055,
      "Ġterrace": 8056,
      "Ġbags": 8057,
      "Ġleadership": 8058,
      "Ġrotting": 8059,
      "Ġreduction": 8060,
      "Ġnoncombat": 8061,
      "Ġpulsed": 8062,
      "Ġresource": 8063,
      "Ġcompanion": 8064,
      "Ġservant": 8065,
      "ĠSilver": 8066,
      "Ġtransformation": 8067,
      "Ġnarrowed": 8068,
      "Ġintroduced": 8069,
      "Ġvolc": 8070,
      "Ġflexed": 8071,
      "Doesn": 8072,
      "Ġwithered": 8073,
      "Ġfuel": 8074,
      "steps": 8075,
      "Ġaccumulated": 8076,
      "ĠArchon": 8077,
      "Ġfrantically": 8078,
      "Ġsturdy": 8079,
      "Ġemerge": 8080,
      "Ġscoffed": 8081,
      "Ġunnecessary": 8082,
      "24": 8083,
      "50": 8084,
      "Bleeding": 8085,
      "ET": 8086,
      "Rem": 8087,
      "TW": 8088,
      "Um": 8089,
      "Vincent": 8090,
      "ihil": 8091,
      "nis": 8092,
      "night": 8093,
      "pers": 8094,
      "rm": 8095,
      "vanced": 8096,
      "Ġ'": 8097,
      "herent": 8098,
      "Ġwarp": 8099,
      "Ġwurm": 8100,
      "Ġhood": 8101,
      "Ġhated": 8102,
      "Ġhooked": 8103,
      "Ġhydra": 8104,
      "Ġban": 8105,
      "Ġfake": 8106,
      "Ġfunny": 8107,
      "ndish": 8108,
      "Ġmount": 8109,
      "Ġded": 8110,
      "Ġdad": 8111,
      "orious": 8112,
      "Ġga": 8113,
      "Ġgau": 8114,
      "Ġgash": 8115,
      "aches": 8116,
      "Ġbead": 8117,
      "iches": 8118,
      "eters": 8119,
      "Ġreb": 8120,
      "Ġrear": 8121,
      "Ġreapp": 8122,
      "Ġragged": 8123,
      "ctu": 8124,
      "ĠSometimes": 8125,
      "Ġshaped": 8126,
      "riest": 8127,
      "Ġsealed": 8128,
      "Ġkinetic": 8129,
      "ĠFour": 8130,
      "Ġalert": 8131,
      "Ġnecess": 8132,
      "Ġabruptly": 8133,
      "Ġally": 8134,
      "ĠCave": 8135,
      "ĠWall": 8136,
      "outs": 8137,
      "Ġvitality": 8138,
      "Ġvault": 8139,
      "Ġmechan": 8140,
      "Ġsheet": 8141,
      "Ġoverall": 8142,
      "ĠGates": 8143,
      "ĠLhel": 8144,
      "plic": 8145,
      "rowed": 8146,
      "Ġswitch": 8147,
      "Ġdism": 8148,
      "Ġentry": 8149,
      "....": 8150,
      "Ġspeech": 8151,
      "Ġrescue": 8152,
      "Ġmetres": 8153,
      "Ġmetallic": 8154,
      "Ġwherever": 8155,
      "Ġmovie": 8156,
      "Ġbuck": 8157,
      "Ġlighting": 8158,
      "Ġhuh": 8159,
      "Ġexplo": 8160,
      "lete": 8161,
      "Ġdemoness": 8162,
      "sword": 8163,
      "Ġfloat": 8164,
      "ificial": 8165,
      "ĠEmma": 8166,
      "ĠEmpire": 8167,
      "Ġtravell": 8168,
      "ĠReve": 8169,
      "Ġhunted": 8170,
      "Ġinvited": 8171,
      "Ġinvasion": 8172,
      "Ġlimb": 8173,
      "Ġdeaths": 8174,
      "Ġfactions": 8175,
      "ĠAlmost": 8176,
      "Ġaffinities": 8177,
      "Ġsquir": 8178,
      "Ġstriking": 8179,
      "Ġmarking": 8180,
      "Ġhopped": 8181,
      "ĠHunters": 8182,
      "eyed": 8183,
      "Ġluckily": 8184,
      "Ġwalkway": 8185,
      "ĠStats": 8186,
      "Many": 8187,
      "Ġfields": 8188,
      "Ġinjury": 8189,
      "Ġboxes": 8190,
      "Ġsuccession": 8191,
      "Ġmirror": 8192,
      "Ġrewarded": 8193,
      "Ġguts": 8194,
      "Ġgreeting": 8195,
      "Ġfoolish": 8196,
      "Ġconstructs": 8197,
      "Ġdetermination": 8198,
      "Ġsyn": 8199,
      "slaught": 8200,
      "Ġdivine": 8201,
      "Ġicon": 8202,
      "Ġreluctant": 8203,
      "Ġviolence": 8204,
      "Ġreflected": 8205,
      "Ġdangers": 8206,
      "Ġsymbols": 8207,
      "Ġcycle": 8208,
      "Ġprospect": 8209,
      "Ġbrilliant": 8210,
      "viath": 8211,
      "ĠValkyries": 8212,
      "ĠCavendish": 8213,
      "%)": 8214,
      "44": 8215,
      "Che": 8216,
      "Earth": 8217,
      "Hm": 8218,
      "Ind": 8219,
      "Me": 8220,
      "Never": 8221,
      "Pe": 8222,
      "Welcome": 8223,
      "affect": 8224,
      "cking": 8225,
      "cra": 8226,
      "gl": 8227,
      "io": 8228,
      "lers": 8229,
      "look": 8230,
      "wark": 8231,
      "zure": 8232,
      "ĠYes": 8233,
      "Ġtie": 8234,
      "Ġoo": 8235,
      "Ġhovered": 8236,
      "Ġbored": 8237,
      "atically": 8238,
      "isely": 8239,
      "Ġdance": 8240,
      "Ġdanced": 8241,
      "Ġdomain": 8242,
      "Ġhem": 8243,
      "Ġlaws": 8244,
      "aros": 8245,
      "Ġinex": 8246,
      "Ġgall": 8247,
      "Ġstation": 8248,
      "Ġreview": 8249,
      "ĠHumans": 8250,
      "ĠHopefully": 8251,
      "urt": 8252,
      "irth": 8253,
      "Ġhaze": 8254,
      "Ġlip": 8255,
      "emed": 8256,
      "Ġsharing": 8257,
      "Ġshuff": 8258,
      "usive": 8259,
      "ppled": 8260,
      "ĠFighting": 8261,
      "que": 8262,
      "Ġabbot": 8263,
      "ĠMountain": 8264,
      "Ġfeature": 8265,
      "Ġmanaging": 8266,
      "Ġchanted": 8267,
      "ander": 8268,
      "istent": 8269,
      "ĠDuring": 8270,
      "olving": 8271,
      "----": 8272,
      "angular": 8273,
      "Ġ(+": 8274,
      "Ġsurm": 8275,
      "Ġcompare": 8276,
      "Ġaching": 8277,
      "grown": 8278,
      "Ġseeking": 8279,
      "Ġentities": 8280,
      "ensed": 8281,
      "ĠThank": 8282,
      "Ġmobility": 8283,
      "ceded": 8284,
      "Thalia": 8285,
      "ĠSky": 8286,
      "Ġsnapping": 8287,
      "Ġmining": 8288,
      "Ġcorners": 8289,
      "Ġworkers": 8290,
      "Ġteamm": 8291,
      "armen": 8292,
      "Ġcutter": 8293,
      "Ġ33": 8294,
      "Ġcrap": 8295,
      "Ġstartling": 8296,
      "Ġdrove": 8297,
      "Ġhurting": 8298,
      "ounters": 8299,
      "Ġsubm": 8300,
      "Ġdetect": 8301,
      "Ġshortly": 8302,
      "Ġsummer": 8303,
      "ĠHerit": 8304,
      "Ġsplashed": 8305,
      "Ġprotective": 8306,
      "Ġscreams": 8307,
      "Ġbasin": 8308,
      "Ġannihil": 8309,
      "Ġcommotion": 8310,
      "Ġhealthy": 8311,
      "intment": 8312,
      "Ġerad": 8313,
      "Ġcomplained": 8314,
      "ĠGrants": 8315,
      "Ġdragging": 8316,
      "Ġfraction": 8317,
      "Ġfreely": 8318,
      "Ġtouching": 8319,
      "Ġelements": 8320,
      "Didn": 8321,
      "Ġoriginally": 8322,
      "Ġsuffered": 8323,
      "Ġorders": 8324,
      "Ġshoes": 8325,
      "Ġwider": 8326,
      "ĠExpl": 8327,
      "ĠAcrobatics": 8328,
      "Ġartificial": 8329,
      "Ġprojectiles": 8330,
      "uddy": 8331,
      "Ġsecrets": 8332,
      "ĠSui": 8333,
      "Ġvictim": 8334,
      "True": 8335,
      "Ġcontrolling": 8336,
      "Ġpolitical": 8337,
      "Again": 8338,
      "Ġinsects": 8339,
      "ĠFlame": 8340,
      "Ġhorizon": 8341,
      "Ġrumors": 8342,
      "ĠUpgrade": 8343,
      "ĠHenry": 8344,
      "Ġstrangely": 8345,
      "ugees": 8346,
      "Ġuniversity": 8347,
      "Ġappreciate": 8348,
      "ĠDominators": 8349,
      "Ġstrategy": 8350,
      "Ġmasked": 8351,
      "Ġenhanced": 8352,
      "Ġalien": 8353,
      "Ġhastily": 8354,
      "Ġominous": 8355,
      "ĠWolf": 8356,
      "29": 8357,
      "60": 8358,
      "Casper": 8359,
      "Got": 8360,
      "Great": 8361,
      "Sl": 8362,
      "Tot": 8363,
      "ao": 8364,
      "gment": 8365,
      "pri": 8366,
      "sight": 8367,
      "Ġazure": 8368,
      "Ġori": 8369,
      "Ġbush": 8370,
      "Ġmol": 8371,
      "arting": 8372,
      "Ġthigh": 8373,
      "Ġthumb": 8374,
      "Ġpipe": 8375,
      "Ġgas": 8376,
      "Ġwasting": 8377,
      "vered": 8378,
      "Ġreception": 8379,
      "ĠHalf": 8380,
      "Ġsailed": 8381,
      "see": 8382,
      "Ġhabit": 8383,
      "ĠSal": 8384,
      "ĠSplitting": 8385,
      "antle": 8386,
      "Ġaback": 8387,
      "unction": 8388,
      "Ġexerc": 8389,
      "ĠWait": 8390,
      "ĠTimos": 8391,
      "Ġlikewise": 8392,
      "ĠEarned": 8393,
      "Ġblocking": 8394,
      "Ġarist": 8395,
      "ĠPan": 8396,
      "ĠDirector": 8397,
      "Ġsupre": 8398,
      "ĠNever": 8399,
      "ĠOg": 8400,
      "aken": 8401,
      "ĠGate": 8402,
      "Ġunholy": 8403,
      "Ġnoble": 8404,
      "rowing": 8405,
      "Ġscra": 8406,
      "Ġstrain": 8407,
      "iping": 8408,
      "Ġswimming": 8409,
      "Ġgrind": 8410,
      "Ġglowed": 8411,
      "Ġpermission": 8412,
      "Ġfoundation": 8413,
      "Ġexpanded": 8414,
      "Ġowner": 8415,
      "ĠManipulation": 8416,
      "Though": 8417,
      "Ġhelpful": 8418,
      "Ġeman": 8419,
      "ĠInf": 8420,
      "Ġlets": 8421,
      "Ġdecis": 8422,
      "Ġcurved": 8423,
      "Ġrested": 8424,
      "ĠWere": 8425,
      "Ġdifferences": 8426,
      "Ġfloors": 8427,
      "Ġbattered": 8428,
      "Ġevident": 8429,
      "ashion": 8430,
      "Ġindicated": 8431,
      "Ġ500": 8432,
      "ĠUnlike": 8433,
      "Ġrefer": 8434,
      "Ġdoubled": 8435,
      "Ġcentim": 8436,
      "Ġevolutions": 8437,
      "Ġpracticing": 8438,
      "Ġcoated": 8439,
      "Ġpatches": 8440,
      "Ġuncle": 8441,
      "lucent": 8442,
      "Ġchallenging": 8443,
      "Ġfootsteps": 8444,
      "Ġveget": 8445,
      "rolled": 8446,
      "Ġtaller": 8447,
      "Ġinstinctively": 8448,
      "ĠPochard": 8449,
      "Ġiniti": 8450,
      "avenous": 8451,
      "Ġtenth": 8452,
      "ĠTithe": 8453,
      "Ġgrandfather": 8454,
      "Ġcollapse": 8455,
      "Ġbothering": 8456,
      "Ġgenius": 8457,
      "Ġsatisfaction": 8458,
      "ggled": 8459,
      "Ġrubbing": 8460,
      "Ġmedic": 8461,
      "Ġselling": 8462,
      "Ġcalmed": 8463,
      "Ġpreparation": 8464,
      "ĠConsortium": 8465,
      "ĠSelf": 8466,
      "Ġshaky": 8467,
      "cendent": 8468,
      "ĠIncreases": 8469,
      "Ġexamine": 8470,
      "ĠTHE": 8471,
      "Ġelectricity": 8472,
      "iko": 8473,
      "Ġhuffed": 8474,
      "Ġhedge": 8475,
      "Ġenveloped": 8476,
      "Ġvolcano": 8477,
      "16": 8478,
      "53": 8479,
      "AA": 8480,
      "Am": 8481,
      "Fore": 8482,
      "IR": 8483,
      "Light": 8484,
      "Meditation": 8485,
      "Over": 8486,
      "aver": 8487,
      "bted": 8488,
      "found": 8489,
      "hh": 8490,
      "had": 8491,
      "rating": 8492,
      "she": 8493,
      "set": 8494,
      "skill": 8495,
      "Ġtur": 8496,
      "Ġtick": 8497,
      "Ġtumbled": 8498,
      "ina": 8499,
      "ints": 8500,
      "Ġsoup": 8501,
      "Ġwy": 8502,
      "Ġoh": 8503,
      "Ġhollow": 8504,
      "Ġbind": 8505,
      "onance": 8506,
      "Ġfung": 8507,
      "ata": 8508,
      "Ġcities": 8509,
      "Ġcaring": 8510,
      "Ġcosm": 8511,
      "Ġcages": 8512,
      "lly": 8513,
      "Ġlone": 8514,
      "Ġinert": 8515,
      "Ġeer": 8516,
      "Ġren": 8517,
      "Ġrelying": 8518,
      "Ġsails": 8519,
      "ĠSer": 8520,
      "ĠAbility": 8521,
      "ĠFe": 8522,
      "ĠFiend": 8523,
      "Ġupright": 8524,
      "Ġaltered": 8525,
      "Ġalco": 8526,
      "ĠMushroom": 8527,
      "astically": 8528,
      "ĠCT": 8529,
      "ĠCommon": 8530,
      "ulking": 8531,
      "ulously": 8532,
      "Ġfeeding": 8533,
      "ĠBetween": 8534,
      "Ġchoo": 8535,
      "ĠEff": 8536,
      "Ġardu": 8537,
      "Ġwhee": 8538,
      "Ġwheel": 8539,
      "ĠDraw": 8540,
      "ĠDivine": 8541,
      "ĠDwarf": 8542,
      "ickly": 8543,
      "ĠNat": 8544,
      "ĠNormally": 8545,
      "Ġoversized": 8546,
      "Ġplun": 8547,
      "Ġproceeded": 8548,
      "Ġflag": 8549,
      "Ġflurry": 8550,
      "reath": 8551,
      "ĠLimit": 8552,
      "Ġhandy": 8553,
      "Ġattitude": 8554,
      "ordinary": 8555,
      "ulled": 8556,
      "ipher": 8557,
      "Ġmyriad": 8558,
      "Ġcomprom": 8559,
      "Ġappet": 8560,
      "Ġarmored": 8561,
      "renched": 8562,
      "ollowing": 8563,
      "Ġglaring": 8564,
      "Ġdesolate": 8565,
      "Ġperce": 8566,
      "ressing": 8567,
      "Ġempowered": 8568,
      "ogether": 8569,
      "ĠKill": 8570,
      "astery": 8571,
      "Ġsideways": 8572,
      "Ġextend": 8573,
      "Ġconsisted": 8574,
      "Ġalongside": 8575,
      "ĠAnalyzed": 8576,
      "Ġinterven": 8577,
      "Ste": 8578,
      "Stop": 8579,
      "Ġcutlass": 8580,
      "ĠAddition": 8581,
      "Ġsuppressed": 8582,
      "Ġtutorials": 8583,
      "azy": 8584,
      "they": 8585,
      "Recovery": 8586,
      "Ġtranslucent": 8587,
      "Ġraising": 8588,
      "Ġsentiment": 8589,
      "Ġpromising": 8590,
      "Ġdeliber": 8591,
      "Ġbrighter": 8592,
      "Ġbrightly": 8593,
      "Ġsixteen": 8594,
      "Ġpondered": 8595,
      "Ġmembership": 8596,
      "Ġillusions": 8597,
      "Ġprogression": 8598,
      "Ġglasses": 8599,
      "Ġmelted": 8600,
      "ĠProbably": 8601,
      "ĠProfession": 8602,
      "Ġsneered": 8603,
      "Ġsneaking": 8604,
      "Ġdrinks": 8605,
      "Ġstretching": 8606,
      "Ġtightly": 8607,
      "ĠAnything": 8608,
      "Ġblankly": 8609,
      "Ġconfusing": 8610,
      "Ġpenetrating": 8611,
      "Ġfifth": 8612,
      "Ġcorrectly": 8613,
      "Ġtemporarily": 8614,
      "Ġchuckle": 8615,
      "Ġshallow": 8616,
      "Ġpockets": 8617,
      "Ġoccasionally": 8618,
      "Ġaspects": 8619,
      "Ġjuice": 8620,
      "Ġremnant": 8621,
      "Ġaccidentally": 8622,
      "Ġskeptically": 8623,
      "Poison": 8624,
      "Ġflinched": 8625,
      "Ġenraged": 8626,
      "Verun": 8627,
      "Ġconduct": 8628,
      "Ġcomprehend": 8629,
      "Ġconclusion": 8630,
      "ĠOgre": 8631,
      "17": 8632,
      "21": 8633,
      "App": 8634,
      "Could": 8635,
      "Tw": 8636,
      "Wor": 8637,
      "body": 8638,
      "iations": 8639,
      "pack": 8640,
      "rum": 8641,
      "ucent": 8642,
      "Ġ|": 8643,
      "Ġtale": 8644,
      "Ġsan": 8645,
      "Ġwob": 8646,
      "Ġboring": 8647,
      "itching": 8648,
      "Ġfault": 8649,
      "isk": 8650,
      "Ġdumped": 8651,
      "Ġdumm": 8652,
      "Ġlac": 8653,
      "any": 8654,
      "Ġpil": 8655,
      "Ġpits": 8656,
      "idal": 8657,
      "utes": 8658,
      "uttered": 8659,
      "Ġbeach": 8660,
      "aline": 8661,
      "alds": 8662,
      "Ġstack": 8663,
      "Ġstable": 8664,
      "Ġstiff": 8665,
      "enting": 8666,
      "ĠHor": 8667,
      "Ġwebs": 8668,
      "Ġrack": 8669,
      "alling": 8670,
      "Ġlies": 8671,
      "ĠAren": 8672,
      "agons": 8673,
      "rove": 8674,
      "ession": 8675,
      "ĠFight": 8676,
      "ĠFair": 8677,
      "Ġintrig": 8678,
      "Ġspite": 8679,
      "Ġexternal": 8680,
      "ĠTree": 8681,
      "ĠBooks": 8682,
      "Ġsoaked": 8683,
      "Ġvort": 8684,
      "Ġvine": 8685,
      "ository": 8686,
      "Ġknelt": 8687,
      "ĠPriest": 8688,
      "ĠNiko": 8689,
      "Ġoverpowered": 8690,
      "ĠGn": 8691,
      "Ġwholly": 8692,
      "Ġslashed": 8693,
      "Ġslaughter": 8694,
      "Ġsloop": 8695,
      "Ġhanding": 8696,
      "Ġscars": 8697,
      "Ġstrict": 8698,
      "ulling": 8699,
      "abilities": 8700,
      "Ġdisd": 8701,
      "Ġfarms": 8702,
      "ĠThayne": 8703,
      "ĠStash": 8704,
      "renaline": 8705,
      "Ġsmallest": 8706,
      "Ġtriumph": 8707,
      "Ġmoist": 8708,
      "Ġmoons": 8709,
      "Ġcrush": 8710,
      "Ġcrash": 8711,
      "Ġempower": 8712,
      "Ġkeeps": 8713,
      "ĠSkink": 8714,
      "Ġawa": 8715,
      "Ġdemonstr": 8716,
      "Ġconsume": 8717,
      "ĠAnchor": 8718,
      "ĠShop": 8719,
      "Ġideal": 8720,
      "Ġweakened": 8721,
      "ĠEnchant": 8722,
      "Ġterm": 8723,
      "Ġappropri": 8724,
      "Ġdeeply": 8725,
      "ĠSpark": 8726,
      "Ancient": 8727,
      "Ġexcuse": 8728,
      "Ġdriver": 8729,
      "Ġalchemical": 8730,
      "Ġdestination": 8731,
      "ĠYeah": 8732,
      "Ġcoughed": 8733,
      "Ġbasically": 8734,
      "Ġprofessional": 8735,
      "Ġapartment": 8736,
      "Ġequival": 8737,
      "Ġtemper": 8738,
      "Ġpathetic": 8739,
      "Ġtroubled": 8740,
      "Ġcleaned": 8741,
      "Ġlaying": 8742,
      "Ġpotentially": 8743,
      "Ġexpectations": 8744,
      "Ġreactions": 8745,
      "Ġbursting": 8746,
      "ervation": 8747,
      "Ġdevoured": 8748,
      "Ġ90": 8749,
      "Ġ93": 8750,
      "Ġdesigns": 8751,
      "Ġwinced": 8752,
      "ĠTempering": 8753,
      "Ġcasters": 8754,
      "Speaking": 8755,
      "Ġoperations": 8756,
      "Ġmanipulate": 8757,
      "Ġbeaten": 8758,
      "Ġchaotic": 8759,
      "Ġgifts": 8760,
      "Ġtreated": 8761,
      "Ġtreatment": 8762,
      "Ġflexible": 8763,
      "Ġadvancement": 8764,
      "Ġbracelet": 8765,
      "Ġrestrictions": 8766,
      "Ġdismissed": 8767,
      "Ġsacrific": 8768,
      "eanwhile": 8769,
      "Ġscreeched": 8770,
      "Ġobscured": 8771,
      "ĠTrial": 8772,
      "Skills": 8773,
      "Ġunhappily": 8774,
      "ĠFortress": 8775,
      "ocrats": 8776,
      "Ġlounge": 8777,
      "genitor": 8778,
      "ĠTwin": 8779,
      "Ġpermanent": 8780,
      "ĠFormation": 8781,
      "Ġincorpor": 8782,
      "Ġpurposes": 8783,
      "Ġimbued": 8784,
      "urprising": 8785,
      "Ġunpleasant": 8786,
      "Ġhusband": 8787,
      "Ġgrateful": 8788,
      "54": 8789,
      "Pun": 8790,
      "Sw": 8791,
      "aari": 8792,
      "bane": 8793,
      "bbing": 8794,
      "bows": 8795,
      "banks": 8796,
      "cut": 8797,
      "case": 8798,
      "eficial": 8799,
      "fare": 8800,
      "filled": 8801,
      "gi": 8802,
      "going": 8803,
      "lia": 8804,
      "meter": 8805,
      "part": 8806,
      "viously": 8807,
      "Ġze": 8808,
      "Ġtour": 8809,
      "Ġtier": 8810,
      "inted": 8811,
      "Ġsip": 8812,
      "Ġwield": 8813,
      "Ġointment": 8814,
      "Ġbuddy": 8815,
      "oubted": 8816,
      "Ġfulf": 8817,
      "atile": 8818,
      "atural": 8819,
      "Ġcup": 8820,
      "Ġtoggled": 8821,
      "Ġmarsh": 8822,
      "Ġdizzy": 8823,
      "Ġlabor": 8824,
      "orter": 8825,
      "acc": 8826,
      "Ġec": 8827,
      "Ġeast": 8828,
      "Ġnons": 8829,
      "Ġbeh": 8830,
      "Ġonward": 8831,
      "Ġstir": 8832,
      "etic": 8833,
      "etter": 8834,
      "ette": 8835,
      "Ġrese": 8836,
      "ĠHope": 8837,
      "urious": 8838,
      "verse": 8839,
      "Ġsail": 8840,
      "Ġsafer": 8841,
      "cending": 8842,
      "amic": 8843,
      "Ġshrou": 8844,
      "riarch": 8845,
      "ĠFull": 8846,
      "ĠFurthermore": 8847,
      "Ġupd": 8848,
      "Ġalt": 8849,
      "Ġspilled": 8850,
      "Ġalliance": 8851,
      "ustered": 8852,
      "ĠWonderment": 8853,
      "Ġdocum": 8854,
      "ĠTort": 8855,
      "Ġheralds": 8856,
      "ĠBro": 8857,
      "ĠBrid": 8858,
      "Ġchop": 8859,
      "bley": 8860,
      "Ġblond": 8861,
      "ocr": 8862,
      "Ġcomr": 8863,
      "Ġcomfor": 8864,
      "Ġtheirs": 8865,
      "thren": 8866,
      "ĠDist": 8867,
      "ĠDef": 8868,
      "ĠDread": 8869,
      "ĠDomain": 8870,
      "ĠNarh": 8871,
      "Ġovercome": 8872,
      "Ġplanted": 8873,
      "Ġprofit": 8874,
      "Ġusage": 8875,
      "Ġunre": 8876,
      "Ġskelet": 8877,
      "Ġtherefore": 8878,
      "ĠLance": 8879,
      "Ġslick": 8880,
      "Ġhandled": 8881,
      "Ġrog": 8882,
      "Ġroaming": 8883,
      "gram": 8884,
      "Ġapplic": 8885,
      "Ġapplied": 8886,
      "Ġimpl": 8887,
      "Ġfarther": 8888,
      "ivor": 8889,
      "Ġunderest": 8890,
      "Ġundoubted": 8891,
      "ĠStarg": 8892,
      "Ġdespair": 8893,
      "Ġtrio": 8894,
      "Ġmob": 8895,
      "Ġmov": 8896,
      "beit": 8897,
      "Ġowned": 8898,
      "astern": 8899,
      "Ġfamili": 8900,
      "ĠUse": 8901,
      "ĠUntil": 8902,
      "Ġhardly": 8903,
      "ĠWeapon": 8904,
      "ĠLeviath": 8905,
      "Ġanswering": 8906,
      "Ġimmensely": 8907,
      "Ġgreatly": 8908,
      "Ġintended": 8909,
      "Ġforeman": 8910,
      "Inter": 8911,
      "Ġstands": 8912,
      "Str": 8913,
      "Ġ32": 8914,
      "Ġbeneficial": 8915,
      "Ġinsisted": 8916,
      "Ġabsent": 8917,
      "Ġnatives": 8918,
      "Ġmeantime": 8919,
      "Ġbrethren": 8920,
      "Ġguessing": 8921,
      "Ġprotest": 8922,
      "ĠUncommon": 8923,
      "Ġawaken": 8924,
      "Ġencounters": 8925,
      "Ġsolo": 8926,
      "Ġsolitary": 8927,
      "Ġimportance": 8928,
      "Ġpracticed": 8929,
      "Ġslender": 8930,
      "Ġfailing": 8931,
      "Ġthrust": 8932,
      "Ġpatted": 8933,
      "Ġmixture": 8934,
      "Ġopportunities": 8935,
      "Ġthreatening": 8936,
      "Ġmillions": 8937,
      "Ġprogressed": 8938,
      "Ġsouls": 8939,
      "Ġloomed": 8940,
      "Ġdetailed": 8941,
      "Ġsufficient": 8942,
      "Ġextraordinary": 8943,
      "Ġunlikely": 8944,
      "Ġwandering": 8945,
      "Ġwhisper": 8946,
      "Ġtasted": 8947,
      "Ġpredic": 8948,
      "attuned": 8949,
      "Ġinnate": 8950,
      "Perception": 8951,
      "phas": 8952,
      "Ġsalam": 8953,
      "Ġgrasping": 8954,
      "Ġcooldown": 8955,
      "Ġintroduction": 8956,
      "Ġmedall": 8957,
      "ĠHarrowing": 8958,
      "Ġpuzz": 8959,
      "Ġcompetition": 8960,
      "Ġpolitics": 8961,
      "ĠClearly": 8962,
      "Ġadjusted": 8963,
      "Ġdiscussion": 8964,
      "Ġguns": 8965,
      "Ġanticipation": 8966,
      "Ġanticipated": 8967,
      "ĠHenaari": 8968,
      "Ġinvestigate": 8969,
      "Ġreinforce": 8970,
      "Ġstrode": 8971,
      "ĠApex": 8972,
      "Ġfilth": 8973,
      "Ġsmirked": 8974,
      "Ġsustain": 8975,
      "Ġcleansed": 8976,
      "Ġenthusi": 8977,
      "Ġassociated": 8978,
      "Ġsymp": 8979,
      "Ġinquiry": 8980,
      "Ġdegree": 8981,
      "Ġconquer": 8982,
      "Ġmuffled": 8983,
      "People": 8984,
      "affected": 8985,
      "ucenti": 8986,
      "Ġvortex": 8987,
      "ĠEnchantments": 8988,
      "Ġundoubtedly": 8989,
      "ĠLeviathans": 8990,
      "38": 8991,
      "40": 8992,
      "42": 8993,
      "Both": 8994,
      "Companion": 8995,
      "Dao": 8996,
      "ENT": 8997,
      "Fuck": 8998,
      "Gabri": 8999,
      "Hidden": 9000,
      "Nature": 9001,
      "Pr": 9002,
      "Rick": 9003,
      "Wow": 9004,
      "Yep": 9005,
      "aid": 9006,
      "dr": 9007,
      "ext": 9008,
      "Ġwo": 9009,
      "Ġopt": 9010,
      "Ġhouses": 9011,
      "Ġbinding": 9012,
      "Ġbirth": 9013,
      "itect": 9014,
      "Ġcouncil": 9015,
      "eness": 9016,
      "Ġdimmed": 9017,
      "Ġlobby": 9018,
      "arl": 9019,
      "Ġge": 9020,
      "Ġep": 9021,
      "Ġegg": 9022,
      "Ġnocked": 9023,
      "Ġonslaught": 9024,
      "Ġstre": 9025,
      "Ġstacking": 9026,
      "Ġresembled": 9027,
      "Ġride": 9028,
      "Ġrav": 9029,
      "Ġsap": 9030,
      "ĠSight": 9031,
      "ĠAbs": 9032,
      "ĠApost": 9033,
      "Ġshark": 9034,
      "Ġlever": 9035,
      "antic": 9036,
      "Ġalbeit": 9037,
      "ĠMoment": 9038,
      "ĠMaggie": 9039,
      "Ġspring": 9040,
      "ĠCome": 9041,
      "ĠCarnage": 9042,
      "ĠBasic": 9043,
      "Ġclock": 9044,
      "Ġchug": 9045,
      "apons": 9046,
      "Ġqual": 9047,
      "Ġenlight": 9048,
      "Ġblocks": 9049,
      "ocate": 9050,
      "ĠPadma": 9051,
      "ourmand": 9052,
      "ĠGod": 9053,
      "Ġflashes": 9054,
      "Ġunarmed": 9055,
      "Ġslumped": 9056,
      "pling": 9057,
      "Ġscary": 9058,
      "Ġadrenaline": 9059,
      "Ġattain": 9060,
      "Ġmonastery": 9061,
      "Ġdisinte": 9062,
      "Ġache": 9063,
      "Ġbiting": 9064,
      "Ġgrit": 9065,
      "Ġdemanded": 9066,
      "Ġguided": 9067,
      "Ġperked": 9068,
      "Ġperipher": 9069,
      "Ġlasted": 9070,
      "Ġattacker": 9071,
      "Ġrecalled": 9072,
      "Ġrecruit": 9073,
      "Ġexploring": 9074,
      "Ġdeciding": 9075,
      "ĠKorm": 9076,
      "ĠKilled": 9077,
      "Ġinflict": 9078,
      "Ġextending": 9079,
      "ocusing": 9080,
      "Ġtravers": 9081,
      "ibilities": 9082,
      "shit": 9083,
      "Ġdeathly": 9084,
      "Ġdiscern": 9085,
      "Ġterrified": 9086,
      "Ġhurry": 9087,
      "ounce": 9088,
      "Ġlocate": 9089,
      "Ġbread": 9090,
      "Ġvariant": 9091,
      "Ġsubstant": 9092,
      "Ġrepair": 9093,
      "Ġhorrible": 9094,
      "Ġmarched": 9095,
      "Shaking": 9096,
      "Ġsharpened": 9097,
      "liction": 9098,
      "Ġspecialized": 9099,
      "Ġgrabbing": 9100,
      "Ġunset": 9101,
      "Ġblasting": 9102,
      "ĠDoom": 9103,
      "Ġadmitted": 9104,
      "Ġmelting": 9105,
      "Ġ75": 9106,
      "Ġutility": 9107,
      "Ġshitty": 9108,
      "ĠQuite": 9109,
      "Ġchanneling": 9110,
      "ĠEyrie": 9111,
      "Ġcases": 9112,
      "Ġsuccessful": 9113,
      "Willpower": 9114,
      "clip": 9115,
      "Ġstreamed": 9116,
      "ĠTempered": 9117,
      "Ġstores": 9118,
      "HAT": 9119,
      "Ġblessed": 9120,
      "Ġspecifically": 9121,
      "Ġpriests": 9122,
      "ĠElf": 9123,
      "ĠElspeth": 9124,
      "Ġobserving": 9125,
      "Ġringing": 9126,
      "Ġfavour": 9127,
      "Ġmisunder": 9128,
      "Ġprecisely": 9129,
      "Ġpalms": 9130,
      "leveled": 9131,
      "Ġfolks": 9132,
      "Ġglee": 9133,
      "Ġassassins": 9134,
      "Ġawkwardly": 9135,
      "Ġsettlement": 9136,
      "Ġfancy": 9137,
      "Ġcalc": 9138,
      "ĠWarriors": 9139,
      "Ġparticipate": 9140,
      "Ġvessels": 9141,
      "Ġunmoving": 9142,
      "Ġdeserted": 9143,
      "Ġunhappy": 9144,
      "Ġjerked": 9145,
      "ĠAgainst": 9146,
      "Ġunaware": 9147,
      "Ġbuzzing": 9148,
      "ĠSigrid": 9149,
      "ĠTenebrils": 9150,
      "ĠSnake": 9151,
      "Ġinheritance": 9152,
      "Ġdinner": 9153,
      "Ġjacket": 9154,
      "Ġfundamental": 9155,
      "Callie": 9156,
      "Ġbodyguard": 9157,
      "Essence": 9158,
      "Ġborder": 9159,
      "ĠDefeat": 9160,
      "Repair": 9161,
      "Ġregistered": 9162,
      "Total": 9163,
      "ĠSalvation": 9164,
      "ĠEfficiency": 9165,
      "Ġdisdain": 9166,
      "Ġcomforting": 9167,
      "Ġfamiliars": 9168,
      ".âĢĻ": 9169,
      "57": 9170,
      "AR": 9171,
      "According": 9172,
      "Dr": 9173,
      "Def": 9174,
      "Fang": 9175,
      "Imm": 9176,
      "Toughness": 9177,
      "Umb": 9178,
      "bor": 9179,
      "covered": 9180,
      "dy": 9181,
      "just": 9182,
      "magic": 9183,
      "oking": 9184,
      "pening": 9185,
[...]
